<unk>	0
<pad>	0
<s>	0
</s>	0
.	-2.70607
:	-3.5142
,	-3.56105
/	-4.09076
▁to	-4.18172
▁and	-4.18935
________________	-4.38328
▁with	-4.42797
▁the	-4.45112
▁of	-4.49917
▁[**	-4.57961
▁for	-4.6746
▁in	-4.75412
▁(	-4.77727
-	-4.77961
s	-4.81094
)	-4.83901
▁is	-4.8735
▁no	-4.92209
▁on	-4.95526
▁	-5.05043
▁pt	-5.24221
2	-5.29948
▁at	-5.36184
▁a	-5.39415
▁this	-5.48729
."	-5.64703
▁"	-5.73798
▁reason	-5.73954
▁______________	-5.76968
▁left	-5.79984
o	-5.85809
▁right	-5.86287
▁chest	-5.89973
▁**]	-5.95168
▁are	-5.96185
p	-5.97619
▁name	-5.97961
▁as	-5.9834
'	-6.002
▁there	-6.01687
cc	-6.09499
▁am	-6.1488
hospital	-6.1601
▁w	-6.18567
▁plan	-6.19398
;	-6.21028
name	-6.21849
▁was	-6.22645
d	-6.27496
▁stable	-6.32106
▁or	-6.33533
▁assessment	-6.33678
▁from	-6.35051
▁clear	-6.36735
▁well	-6.37013
▁tube	-6.37928
▁examination	-6.38191
▁report	-6.40942
▁s	-6.41412
▁cont	-6.42079
▁#	-6.43634
▁old	-6.45043
▁remains	-6.45137
▁2	-6.45566
▁has	-6.45846
▁number	-6.46115
▁x	-6.46352
▁monitor	-6.47074
▁continue	-6.47325
▁condition	-6.47936
clip	-6.48816
▁medical	-6.48831
▁noted	-6.49295
▁be	-6.50076
▁pain	-6.50403
radiology	-6.50455
▁lung	-6.513
▁year	-6.53588
▁o	-6.54167
▁final	-6.54172
▁normal	-6.54643
a	-6.56607
▁infant	-6.58373
▁clip	-6.59054
▁c	-6.5954
▁not	-6.60994
▁last	-6.6146
hr	-6.62527
kg	-6.63969
▁by	-6.65204
▁response	-6.65887
▁given	-6.65933
▁sounds	-6.66353
▁p	-6.66717
▁soft	-6.67489
▁but	-6.67996
▁r	-6.6851
▁1	-6.69077
last	-6.69295
▁status	-6.6939
▁-	-6.71372
1	-6.71767
▁ap	-6.73767
▁change	-6.75341
▁support	-6.75358
▁will	-6.75461
▁today	-6.777
▁patient	-6.79077
▁pm	-6.80585
t	-6.80626
▁&	-6.80729
▁2**]	-6.80877
▁shift	-6.82147
▁small	-6.8232
▁impression	-6.83687
▁action	-6.84712
▁placement	-6.84864
▁diagnosis	-6.85675
▁care	-6.8633
▁abd	-6.86872
▁admitting	-6.8833
▁q	-6.8868
▁d	-6.89482
▁pleural	-6.89528
ni	-6.91732
▁iv	-6.93579
▁ct	-6.9384
▁note	-6.94911
▁effusion	-6.94955
▁hr	-6.96194
"	-6.96856
▁comparison	-6.97181
▁3	-6.97392
▁man	-6.97449
▁po	-6.97583
▁bs	-6.99058
▁findings	-6.99165
▁bp	-6.99359
▁feeds	-7.00239
▁line	-7.00275
▁increased	-7.03342
c	-7.03741
▁changes	-7.04757
▁up	-7.04974
▁seen	-7.05176
▁prior	-7.05409
▁now	-7.06351
resp	-7.06842
▁mild	-7.07049
▁4	-7.07568
▁+	-7.07691
▁previous	-7.08779
▁?	-7.09739
▁sats	-7.13232
▁pulmonary	-7.13285
▁rr	-7.13701
▁secretions	-7.13904
▁per	-7.14549
▁resp	-7.15065
▁after	-7.15833
l	-7.16295
▁post	-7.16907
▁history	-7.16941
▁lower	-7.17535
▁please	-7.17677
▁interval	-7.18336
▁acute	-7.18446
▁unchanged	-7.18711
4	-7.19715
▁good	-7.21061
▁over	-7.21335
▁5	-7.21348
▁she	-7.21364
▁vent	-7.22236
▁pneumothorax	-7.22714
▁he	-7.23367
▁indication	-7.24272
▁off	-7.24327
▁stool	-7.24337
gi	-7.24871
▁been	-7.25069
▁family	-7.25173
▁gtt	-7.25279
▁tf	-7.25454
▁evidence	-7.25517
▁compared	-7.2569
▁day	-7.26047
▁follow	-7.26407
mg	-7.26409
▁edema	-7.26422
▁when	-7.26857
▁eval	-7.27384
▁study	-7.28696
▁/	-7.29302
▁woman	-7.29777
▁low	-7.29931
▁cares	-7.30529
▁size	-7.31048
▁present	-7.31314
namepattern	-7.32393
▁assess	-7.32423
▁have	-7.32579
title	-7.34345
▁failure	-7.34509
day	-7.34673
▁upper	-7.34996
▁"[**	-7.35755
▁respiratory	-7.35771
▁active	-7.35995
portable	-7.36033
▁all	-7.36078
▁without	-7.36425
▁air	-7.36449
▁evaluate	-7.36465
▁time	-7.38087
▁l	-7.38256
▁thick	-7.38338
▁urine	-7.38606
▁new	-7.38902
▁tracing	-7.39345
▁cm	-7.39353
3	-7.39424
▁temp	-7.40266
gu	-7.40294
▁non	-7.4096
▁fluid	-7.41206
▁an	-7.42307
▁had	-7.42958
▁placed	-7.43104
doctor	-7.43494
▁abdomen	-7.43685
▁bowel	-7.43749
▁breathing	-7.44902
first	-7.44998
▁tip	-7.45101
▁10	-7.45365
cv	-7.46129
▁20	-7.4642
▁bm	-7.46925
▁lungs	-7.47022
▁head	-7.47716
▁blood	-7.4795
▁continues	-7.47967
▁that	-7.48009
▁sinus	-7.48053
▁bilateral	-7.48122
▁yellow	-7.48202
▁ventricular	-7.48895
▁see	-7.48998
&	-7.49341
▁tolerated	-7.49352
▁rhythm	-7.49382
▁rate	-7.49705
▁cc	-7.50018
▁position	-7.50228
▁mom	-7.50625
▁contrast	-7.50659
8	-7.50738
▁sbp	-7.51485
▁since	-7.52367
▁due	-7.52544
plan	-7.5322
▁exam	-7.53545
known	-7.53688
▁t	-7.5387
▁sputum	-7.53875
▁wean	-7.54107
▁intubated	-7.54997
un	-7.55141
pt	-7.55876
▁also	-7.56416
▁alert	-7.56422
g	-7.56945
▁intact	-7.57084
▁heart	-7.57148
▁via	-7.57168
▁ra	-7.57257
▁atelectasis	-7.57405
▁cpap	-7.57453
m	-7.57616
neuro	-7.57788
▁hct	-7.58281
▁hours	-7.58307
▁which	-7.58316
▁place	-7.5833
▁back	-7.58673
▁ventilation	-7.58836
▁pneumonia	-7.59
year	-7.59188
▁within	-7.59326
▁current	-7.59598
▁abg	-7.61061
▁voiding	-7.61693
▁valve	-7.6201
k	-7.62927
▁progress	-7.62933
▁portable	-7.65033
▁down	-7.65757
▁catheter	-7.65831
▁her	-7.65965
▁if	-7.66212
▁very	-7.66394
▁feeding	-7.66404
no	-7.67374
▁more	-7.67686
▁dr	-7.67777
▁started	-7.67821
▁out	-7.68014
▁fio	-7.68063
▁st	-7.68278
h	-7.68637
▁murmur	-7.69347
▁ordered	-7.70534
▁cough	-7.70577
+	-7.70835
▁lasix	-7.70882
▁lobe	-7.7105
▁7	-7.71133
▁were	-7.71223
▁foley	-7.71439
▁received	-7.71532
▁done	-7.71815
▁wave	-7.72019
▁6	-7.72466
▁made	-7.72879
▁above	-7.73576
▁tolerating	-7.74215
▁moderate	-7.74293
▁team	-7.74869
▁open	-7.75244
▁neuro	-7.75851
▁picc	-7.76245
▁suctioned	-7.77182
▁level	-7.77388
▁radiograph	-7.77678
▁renal	-7.78064
▁30	-7.78773
▁further	-7.7883
▁far	-7.79121
▁cardiac	-7.7989
u	-7.80103
▁commands	-7.80146
▁ett	-7.80491
▁fracture	-7.80678
▁24	-7.80721
▁diminished	-7.81098
▁lateral	-7.81256
▁comments	-7.81355
▁skin	-7.81405
▁g	-7.81489
old	-7.82312
▁some	-7.82441
▁significant	-7.83058
▁150	-7.83222
[**	-7.83287
▁needs	-7.84158
▁large	-7.84183
▁coarse	-7.84194
npn	-7.84344
▁flow	-7.84578
▁times	-7.84608
▁decreased	-7.84736
▁able	-7.85095
r	-7.85321
▁effusions	-7.85596
▁minimal	-7.85793
▁pulses	-7.86714
▁slightly	-7.87371
▁his	-7.88137
▁again	-7.8878
▁changed	-7.90083
▁spells	-7.90146
▁bed	-7.90389
10	-7.90708
▁u	-7.9084
▁effect	-7.91116
▁ls	-7.91296
▁airway	-7.91353
▁breath	-7.91409
=	-7.91826
▁sent	-7.91875
▁mae	-7.91981
▁atrial	-7.92012
▁40	-7.9208
▁aware	-7.926
▁updated	-7.9413
6	-7.94743
▁trach	-7.95794
▁drainage	-7.95795
▁artery	-7.95922
▁first	-7.96195
▁sat	-7.96428
▁other	-7.96774
▁one	-7.96973
▁view	-7.97176
▁hemorrhage	-7.97377
id	-7.97439
▁amt	-7.97692
▁i	-7.97781
▁goal	-7.97866
min	-7.9789
bs	-7.98863
▁draining	-7.99216
▁50	-7.99553
▁disease	-7.99554
▁appears	-7.99589
▁pink	-7.99662
▁clinical	-7.99776
▁volume	-7.99827
▁likely	-8.00256
▁dose	-8.00404
▁90	-8.00637
▁benign	-8.00891
▁aortic	-8.01002
▁8	-8.01114
▁full	-8.0116
▁60	-8.01166
v	-8.01168
▁bases	-8.01447
▁throughout	-8.0151
hrs	-8.01523
▁color	-8.01639
5	-8.01671
▁spits	-8.0188
skin	-8.02013
▁80	-8.02092
▁may	-8.02146
▁mid	-8.02657
▁improved	-8.02963
▁during	-8.03638
▁mg	-8.04179
▁night	-8.04355
▁overnight	-8.04529
-7	-8.04562
▁needed	-8.05009
▁intubation	-8.05523
▁weight	-8.06005
▁100	-8.06537
▁check	-8.07318
▁increase	-8.07406
▁multiple	-8.07618
▁npo	-8.07671
▁b	-8.0772
lf	-8.0774
▁25	-8.08177
▁called	-8.08451
mm	-8.08471
social	-8.08507
▁possible	-8.08569
cm	-8.08742
1)	-8.0899
▁weaned	-8.09005
▁ectopy	-8.09014
in	-8.09182
▁most	-8.09291
▁wt	-8.09375
▁4**]	-8.09582
▁currently	-8.0974
▁nc	-8.09741
▁prn	-8.10168
▁cuff	-8.10195
▁white	-8.10317
w	-8.10375
▁single	-8.1054
▁obtained	-8.11194
▁insulin	-8.11217
▁peep	-8.11578
▁consistent	-8.11934
▁site	-8.11938
i	-8.12716
▁high	-8.13012
▁type	-8.132
▁following	-8.13243
▁labs	-8.13263
▁both	-8.13501
▁visit	-8.13831
▁pressure	-8.13898
▁chf	-8.14215
▁tol	-8.14713
▁liver	-8.14829
▁only	-8.15182
ing	-8.15311
▁settings	-8.15318
▁bedside	-8.15992
▁pa	-8.16322
▁nsr	-8.16965
▁remain	-8.17081
▁k	-8.17093
▁so	-8.17402
▁identified	-8.17672
▁side	-8.17689
▁mediastinal	-8.17847
▁amts	-8.17884
▁home	-8.18196
b	-8.1828
▁than	-8.18445
▁equal	-8.18587
▁sepsis	-8.1888
▁re	-8.1905
▁patent	-8.19547
▁f	-8.19776
▁still	-8.19866
▁fever	-8.20184
▁h	-8.2029
▁loops	-8.20855
▁wall	-8.21103
▁any	-8.21323
▁then	-8.21624
▁appropriate	-8.21706
pm	-8.21851
▁sedated	-8.21867
▁15	-8.21886
▁abdominal	-8.21919
▁lytes	-8.22622
▁min	-8.22832
continue	-8.23722
▁yesterday	-8.23741
▁retractions	-8.23826
▁adequate	-8.2416
nursing	-8.24335
▁update	-8.2445
▁central	-8.24473
▁ng	-8.2492
▁pending	-8.25163
1-	-8.25206
▁thus	-8.25237
▁wnl	-8.25414
tracing	-8.25833
▁chronic	-8.26118
▁output	-8.26244
month	-8.26364
▁afebrile	-8.26525
▁does	-8.26608
▁next	-8.2681
▁need	-8.27177
▁pattern	-8.27223
▁mass	-8.27838
▁cabg	-8.27869
▁isolette	-8.28003
▁cxr	-8.28062
▁opacity	-8.28304
▁cath	-8.2831
▁crib	-8.28397
▁propofol	-8.28583
neonatology	-8.2903
▁procedure	-8.29107
am	-8.29386
▁sob	-8.29701
▁lat	-8.29748
▁area	-8.2984
▁amount	-8.29851
▁comfort	-8.30159
cont	-8.30358
▁control	-8.30499
▁bleed	-8.30701
respiratory	-8.3077
▁lopressor	-8.31048
▁room	-8.31292
▁views	-8.31318
▁management	-8.31692
▁ml	-8.31713
▁flowsheet	-8.31729
▁questions	-8.31899
▁technique	-8.32135
▁mod	-8.32416
▁eyes	-8.3271
▁contact	-8.32715
▁attending	-8.33131
▁caffeine	-8.33466
▁results	-8.33495
▁repeat	-8.33643
on	-8.33798
▁distress	-8.33831
▁12	-8.3411
▁transfer	-8.34115
▁keep	-8.34617
▁afternoon	-8.34823
▁pna	-8.34856
▁male	-8.34858
▁base	-8.34956
4-	-8.3545
▁70	-8.35823
▁into	-8.35924
e	-8.35937
n	-8.36406
▁consolidation	-8.36535
(	-8.36603
▁vein	-8.3673
▁systolic	-8.36757
endo	-8.37099
x	-8.372
▁performed	-8.37269
▁tomorrow	-8.37278
▁initial	-8.37326
▁baby	-8.37335
▁rn	-8.37697
▁unremarkable	-8.37777
▁recent	-8.37792
▁doppler	-8.37799
▁bilat	-8.37841
▁venous	-8.37983
▁it	-8.38049
▁stooling	-8.38216
▁process	-8.38311
▁free	-8.38427
▁temps	-8.38496
.[**	-8.38628
▁meds	-8.38858
-10-	-8.39036
▁nursing	-8.39044
▁ngt	-8.39101
▁anterior	-8.39231
▁evaluation	-8.39307
md	-8.397
▁fentanyl	-8.39716
mcg	-8.39885
▁oriented	-8.40302
▁extremities	-8.4052
▁aspiration	-8.40745
/[**	-8.40959
▁elevated	-8.41174
▁bilaterally	-8.41249
?	-8.41366
▁distended	-8.41433
▁tachycardia	-8.41458
4)	-8.41516
▁vascular	-8.4205
▁v	-8.42131
▁admitted	-8.423
▁denies	-8.42787
▁unable	-8.42801
▁date	-8.42864
▁difficult	-8.43082
▁swaddled	-8.43085
9-	-8.43092
▁md	-8.4313
not	-8.43687
▁otherwise	-8.43761
▁negative	-8.4404
f	-8.44066
▁carevue	-8.44124
▁sx	-8.44128
3-	-8.44506
▁between	-8.44559
sinus	-8.44856
▁through	-8.45143
▁infarction	-8.45235
▁port	-8.45553
▁amounts	-8.45661
▁body	-8.45689
sided	-8.45791
217	-8.45911
▁bili	-8.45977
▁heparin	-8.46034
▁none	-8.46071
▁distal	-8.46091
▁awake	-8.46153
▁infiltrate	-8.46191
ed	-8.46199
▁two	-8.46227
infant	-8.46462
▁while	-8.46621
▁closely	-8.46879
▁wbc	-8.46954
▁sedation	-8.47046
▁removed	-8.47643
▁stomach	-8.48014
▁pe	-8.48193
20	-8.48253
▁start	-8.48262
▁m	-8.48277
▁abnormalities	-8.48408
▁comfortable	-8.48496
to	-8.48813
▁days	-8.49097
▁bolus	-8.49419
▁leads	-8.49488
▁did	-8.49565
219	-8.49611
▁neo	-8.49656
▁data	-8.49911
▁oral	-8.50032
▁worsening	-8.50255
▁face	-8.50377
▁details	-8.50421
▁vs	-8.50485
5-	-8.50529
▁atrium	-8.50706
▁ideal	-8.5075
▁work	-8.51037
▁mildly	-8.51282
▁maintain	-8.51389
▁transferred	-8.51829
▁hrs	-8.52398
▁opacities	-8.52509
▁being	-8.52633
▁subclavian	-8.52673
▁oob	-8.52976
▁morning	-8.53041
▁less	-8.53128
▁neg	-8.53284
▁sc	-8.53443
▁gi	-8.53657
▁week	-8.53774
▁same	-8.53847
▁psv	-8.53907
▁micu	-8.54177
▁about	-8.54207
will	-8.54224
pre	-8.54238
▁focal	-8.54369
▁arm	-8.54397
▁endotracheal	-8.54503
);	-8.54504
▁map	-8.54543
and	-8.54804
▁appearance	-8.55027
▁myocardial	-8.55061
▁however	-8.55232
fen	-8.55597
▁available	-8.56141
▁known	-8.5623
▁e	-8.5624
▁pacifier	-8.56543
▁block	-8.56999
▁sr	-8.57154
▁feed	-8.57404
st	-8.57413
▁tonight	-8.57464
▁floor	-8.5763
▁structures	-8.57636
▁>	-8.57804
▁sm	-8.58245
▁svc	-8.58289
▁gas	-8.58338
▁mitral	-8.58481
▁requiring	-8.58502
▁et	-8.5866
--	-8.58697
▁held	-8.58766
▁activity	-8.59046
▁images	-8.59053
wt	-8.59244
▁mental	-8.59843
▁1.	-8.59976
▁spine	-8.60066
▁total	-8.60179
▁evening	-8.60248
▁resolved	-8.60547
▁contours	-8.60989
6-	-8.61183
▁course	-8.61495
▁bleeding	-8.61515
▁ivf	-8.61556
▁female	-8.6172
pa	-8.6173
▁slight	-8.61943
▁visualized	-8.61944
▁femoral	-8.6205
▁npn	-8.62566
▁removal	-8.62618
see	-8.62802
▁ativan	-8.63048
▁fen	-8.63186
▁persistent	-8.63246
▁physician	-8.63448
▁ns	-8.63647
▁extubated	-8.63659
▁tan	-8.63681
▁taking	-8.64085
▁chair	-8.64105
▁ij	-8.64115
▁abx	-8.64333
▁140	-8.64482
▁who	-8.64531
▁ptx	-8.64652
▁limits	-8.64683
11-	-8.64719
▁infection	-8.64829
▁aga	-8.64948
▁rsbi	-8.65129
▁35	-8.65332
▁silhouette	-8.65839
->	-8.66037
▁earlier	-8.66095
▁extubation	-8.66235
▁fibrillation	-8.66483
▁mother	-8.66485
▁tone	-8.6669
▁severe	-8.66858
▁poor	-8.67065
▁ultrasound	-8.67088
▁frontal	-8.67449
▁hypotension	-8.67535
▁unit	-8.67578
▁could	-8.67619
▁surgery	-8.67968
▁follows	-8.68001
▁100%	-8.68009
2)	-8.68147
▁meeting	-8.68557
▁improvement	-8.68634
▁dry	-8.68713
▁mask	-8.68738
12-	-8.68819
▁cannot	-8.68839
▁vanco	-8.69035
▁carina	-8.6916
▁ps	-8.69524
▁med	-8.69901
▁read	-8.69977
▁130	-8.70265
▁diffuse	-8.70471
▁under	-8.70868
▁applied	-8.71339
▁film	-8.71364
▁ed	-8.71412
▁drain	-8.71433
▁continued	-8.71671
▁monitoring	-8.7191
▁ventricle	-8.72096
▁leaflets	-8.72305
▁45	-8.72355
▁parents	-8.7258
▁infusing	-8.72625
▁26	-8.72799
▁nasal	-8.72825
▁leg	-8.7286
▁volumes	-8.73078
▁afib	-8.73114
▁invasive	-8.73242
▁rhonchi	-8.73592
▁inferior	-8.7361
▁3**]	-8.73904
▁appear	-8.7392
th	-8.73995
▁limited	-8.74081
▁dvt	-8.74092
▁ca	-8.74124
▁np	-8.74316
▁hx	-8.74584
▁increasing	-8.74843
▁75	-8.75097
▁9	-8.75247
▁abnormality	-8.75317
▁cx	-8.75549
▁0	-8.75624
▁hematoma	-8.75669
▁wet	-8.75739
location	-8.76104
▁veins	-8.76157
▁28	-8.76158
▁fall	-8.76244
since	-8.76333
30	-8.76387
▁dev	-8.76482
▁pericardial	-8.76552
▁mechanical	-8.7676
▁baseline	-8.76795
▁diet	-8.77071
▁stenosis	-8.77532
▁rt	-8.77795
▁would	-8.7787
▁feedings	-8.77876
▁frequent	-8.77886
▁obstruction	-8.7789
ontraindications	-8.78103
▁areas	-8.78318
specific	-8.78343
left	-8.78391
▁trauma	-8.78418
▁signs	-8.78446
.#4	-8.78684
▁function	-8.79289
▁tylenol	-8.79527
▁warm	-8.79554
▁standard	-8.79877
▁ards	-8.7997
▁""	-8.80028
▁past	-8.80455
▁120	-8.80456
▁lll	-8.80479
▁intracranial	-8.80572
▁correlation	-8.81431
▁cvp	-8.81511
▁discharge	-8.81541
▁=	-8.81555
▁ac	-8.81599
▁n	-8.81717
▁until	-8.81725
▁drip	-8.81775
▁extremity	-8.82172
ly	-8.82381
▁rest	-8.82413
▁overall	-8.82481
▁around	-8.82531
▁found	-8.82666
▁admission	-8.82714
▁nasogastric	-8.83202
op	-8.83295
""	-8.83379
▁pulm	-8.83561
▁several	-8.83937
▁bradycardia	-8.84099
▁movement	-8.84192
9	-8.84275
▁tx	-8.8437
▁500	-8.8441
▁discussed	-8.84467
▁internal	-8.84616
▁yo	-8.84786
▁positive	-8.84989
▁suggested	-8.8522
▁fx	-8.85278
▁mri	-8.8543
▁brown	-8.85485
▁source	-8.85507
▁morphine	-8.86059
with	-8.86221
▁wife	-8.86323
▁rll	-8.86347
▁hd	-8.86692
▁pre	-8.86727
abd	-8.86735
▁dilated	-8.8693
▁weeks	-8.86982
▁supine	-8.87028
2**]	-8.87111
▁40%	-8.87127
▁dressing	-8.87213
▁information	-8.87214
▁lead	-8.87267
▁flat	-8.87293
▁icu	-8.87577
▁02	-8.87587
▁sleeping	-8.87656
▁transplant	-8.87678
▁scan	-8.88003
▁thoracic	-8.88013
▁2.	-8.88536
▁hour	-8.88756
▁daily	-8.88798
▁midline	-8.88807
▁receiving	-8.89126
▁occasional	-8.89507
▁better	-8.89565
▁co	-8.89872
▁cardiomegaly	-8.89913
▁perfused	-8.8994
▁uo	-8.89982
▁bibasilar	-8.90389
▁later	-8.90396
▁showed	-8.90422
▁tubes	-8.90655
▁encourage	-8.90773
▁18	-8.90793
ml	-8.91011
patient	-8.91215
▁region	-8.9135
▁11	-8.91487
▁ventilatory	-8.9213
▁brain	-8.92175
▁hands	-8.92274
▁hip	-8.92502
7**]	-8.92646
▁required	-8.92861
▁#1	-8.92894
▁motion	-8.92974
8**]	-8.93024
▁swan	-8.93078
▁carept	-8.93093
▁do	-8.93166
5**]	-8.93297
al	-8.9333
▁nutrition	-8.93436
▁intake	-8.93474
▁pn	-8.93557
▁growth	-8.93694
▁suctioning	-8.9381
▁antibiotics	-8.9388
1**]	-8.93905
▁tracheostomy	-8.94031
▁neck	-8.94123
▁wound	-8.94213
▁max	-8.94719
right	-8.94754
▁early	-8.94797
3**]	-8.94869
▁22	-8.94873
▁initially	-8.95036
19**]	-8.95127
▁repleted	-8.95174
▁pfi	-8.95236
▁rul	-8.95434
remains	-8.9555
▁50%	-8.95558
▁desats	-8.95771
▁underlying	-8.95783
▁previously	-8.96203
▁units	-8.96338
▁apnea	-8.96449
▁piv	-8.9653
.#3	-8.96959
▁nausea	-8.97262
▁tissue	-8.97318
▁eye	-8.97327
▁these	-8.97391
▁secondary	-8.97515
▁culture	-8.97528
▁son	-8.97571
▁jugular	-8.97593
4**]	-8.97665
is	-8.97884
▁gain	-8.97965
▁crackles	-8.98143
▁posterior	-8.98167
▁proximal	-8.98424
▁ptt	-8.9843
▁easily	-8.98503
9**]	-8.98559
▁approximately	-8.98625
▁asking	-8.98737
▁additional	-8.98746
▁assistance	-8.98887
▁occ	-8.99046
:"	-8.99049
▁hand	-8.99211
▁complete	-8.99239
▁ext	-8.99305
▁dc	-8.99389
▁48	-8.99452
▁decrease	-8.99494
6**]	-8.99534
▁moving	-8.99569
▁rehab	-8.99621
▁aorta	-8.99784
▁awaiting	-8.99825
27**]	-8.99863
▁dad	-8.99899
▁80'	-8.99963
▁remained	-9.00229
▁probably	-9.00332
▁coronary	-9.0055
▁consult	-9.00602
▁fractures	-9.0075
bp	-9.00964
▁can	-9.01184
▁scant	-9.0134
test	-9.01404
▁y	-9.0145
18**]	-9.01548
▁65	-9.01557
▁retrocardiac	-9.01704
contrast	-9.01783
12**]	-9.01877
▁90'	-9.01908
23**]	-9.01951
▁kidney	-9.02017
▁dsg	-9.02216
▁protocol	-9.02424
▁14	-9.02679
▁mr	-9.02789
or	-9.028
▁cv	-9.02988
▁use	-9.03001
▁55	-9.03093
▁advance	-9.03184
▁progression	-9.03262
▁pvc	-9.03269
▁lul	-9.03299
▁call	-9.03303
▁took	-9.03411
▁attempt	-9.0342
▁servo	-9.03619
.4.	-9.03661
▁age	-9.0367
20**]	-9.03761
▁location	-9.03957
28**]	-9.04073
▁tidal	-9.04221
11**]	-9.04438
▁htn	-9.04557
pe	-9.046
.#5	-9.04827
▁aspirates	-9.05113
▁episodes	-9.05212
▁much	-9.05247
15**]	-9.05273
▁get	-9.05303
21**]	-9.05382
▁code	-9.05417
▁prominent	-9.05956
▁suction	-9.0609
▁osseous	-9.06172
▁residual	-9.06335
▁deep	-9.06361
30**]	-9.06556
25**]	-9.06702
16**]	-9.06702
▁treated	-9.06757
▁although	-9.0692
▁bottle	-9.06925
▁involved	-9.06963
▁consider	-9.07025
13**]	-9.07075
▁mm	-9.07112
▁versed	-9.07174
▁they	-9.07346
▁waking	-9.07466
▁breast	-9.0748
17**]	-9.07486
▁palpable	-9.07516
▁carotid	-9.07575
▁difficulty	-9.07583
▁represent	-9.07613
▁daughter	-9.07902
▁improving	-9.07979
▁stools	-9.07985
▁replacement	-9.08229
26**]	-9.08493
▁continuing	-9.086
▁mouth	-9.08613
▁nicu	-9.08671
▁procedures	-9.08695
▁cl	-9.08701
▁sxn	-9.08932
▁surgical	-9.08967
▁scale	-9.09038
▁junction	-9.09043
▁once	-9.09343
18	-9.09363
gms	-9.0948
▁development	-9.09481
▁cad	-9.09623
▁foot	-9.09637
▁#2	-9.09789
10**]	-9.10279
▁altered	-9.10361
24**]	-9.10569
▁pupils	-9.10618
y	-9.10739
▁moves	-9.10802
▁premature	-9.10836
acute	-9.10851
▁osh	-9.10859
7-	-9.11007
▁groin	-9.11034
▁terminates	-9.11287
▁few	-9.11348
▁swelling	-9.11364
▁weaning	-9.11385
sda	-9.11402
the	-9.11455
▁glucose	-9.11489
▁enlarged	-9.11492
▁fluids	-9.11654
▁self	-9.11678
▁32	-9.11733
▁advanced	-9.11743
14**]	-9.11797
stable	-9.11873
▁probable	-9.1191
ardiomediastinal	-9.12038
3.	-9.12131
▁ogt	-9.1215
▁nested	-9.12347
▁interstitial	-9.12387
▁upright	-9.12401
only	-9.12652
▁hilar	-9.1268
▁hold	-9.12931
22**]	-9.13146
▁echo	-9.13244
up	-9.13443
29**]	-9.13462
▁having	-9.13604
▁pg	-9.13667
▁before	-9.13689
amount	-9.13731
▁consistency	-9.13758
▁kcl	-9.14145
▁below	-9.14265
▁excluded	-9.14291
▁leak	-9.14392
▁axis	-9.14396
▁visual	-9.14398
▁%	-9.14452
▁liquid	-9.14508
1.	-9.14779
▁tmax	-9.14803
▁injury	-9.14843
▁here	-9.14869
▁red	-9.15044
▁asp	-9.15044
▁yet	-9.15059
▁stent	-9.15128
cardiac	-9.15296
age	-9.15526
▁provide	-9.15612
▁heme	-9.15816
▁diuresis	-9.15827
▁refer	-9.15992
▁diagnostic	-9.16087
▁quality	-9.16088
▁rrr	-9.16749
rr	-9.16824
dev	-9.17026
▁titrated	-9.17107
▁dated	-9.17167
▁27	-9.17319
▁wires	-9.1743
▁23	-9.17588
▁hypertension	-9.17657
▁drawn	-9.17723
▁episode	-9.17738
▁added	-9.178
▁sl	-9.17999
▁range	-9.18072
▁greater	-9.18247
▁dilaudid	-9.18317
▁ischemia	-9.18444
7	-9.18479
▁agitated	-9.18592
▁levophed	-9.18612
▁34	-9.18664
▁sleeps	-9.18903
▁hospital	-9.18903
▁using	-9.19223
▁thickened	-9.19333
▁us	-9.19418
▁cervical	-9.19464
▁16	-9.19562
▁phototherapy	-9.19563
▁pelvis	-9.19686
▁cta	-9.19738
▁cavity	-9.19775
▁congestion	-9.19787
▁voice	-9.1993
▁opacification	-9.1997
▁21	-9.20021
▁rule	-9.20053
▁lab	-9.20053
▁round	-9.20065
▁tinged	-9.20108
▁strong	-9.20144
▁incision	-9.20339
▁voltage	-9.20614
please	-9.20657
▁prbc	-9.20761
voiding	-9.20794
▁order	-9.21201
▁ascites	-9.21285
▁cultures	-9.21314
ray	-9.21366
▁hepatic	-9.2145
.3.	-9.21484
▁minutes	-9.21564
▁24-48	-9.21732
▁residuals	-9.21797
▁restarted	-9.22005
▁hypoxia	-9.22266
▁bun	-9.2228
▁its	-9.22329
▁hemodynamically	-9.22367
▁radiographs	-9.22415
3,	-9.22561
▁lines	-9.22561
▁measures	-9.2271
▁sided	-9.22734
▁quiet	-9.22976
▁reviewed	-9.23092
▁states	-9.23278
▁cancer	-9.23862
▁hypertrophy	-9.23903
▁graft	-9.23974
▁copd	-9.23989
▁cga	-9.24092
▁enteral	-9.24111
▁mdi	-9.24204
15	-9.24271
▁qs	-9.24292
▁little	-9.24401
▁peg	-9.24465
ile	-9.24485
▁sleep	-9.24676
▁36	-9.24964
▁issues	-9.25004
▁attempted	-9.25051
line	-9.25079
▁sutures	-9.25108
24	-9.25247
▁bundle	-9.25345
▁(1)	-9.25457
▁vit	-9.25496
▁repair	-9.25507
▁coughing	-9.25686
heme	-9.25861
date	-9.25949
▁taken	-9.26061
▁peripheral	-9.26093
▁bloody	-9.26183
▁13	-9.26258
▁demonstrated	-9.26438
▁became	-9.26579
▁pos	-9.26694
ap	-9.26727
▁common	-9.26877
▁levels	-9.26891
micu	-9.26981
▁dyspnea	-9.27161
▁29	-9.27232
▁knee	-9.27367
ox	-9.27391
▁gavage	-9.27394
▁bypass	-9.27401
▁vol	-9.27583
▁thin	-9.27584
▁turned	-9.27626
▁appropriately	-9.27849
▁apical	-9.28434
▁checks	-9.28454
▁hypoactive	-9.28738
▁warmer	-9.28818
▁overlying	-9.28857
▁identifier	-9.28933
▁toilet	-9.29072
▁weak	-9.29183
pg	-9.29206
▁tpn	-9.29418
▁regurgitation	-9.2962
▁problems	-9.29743
11	-9.29749
▁shows	-9.29793
weight	-9.29866
▁approx	-9.29878
▁maintaining	-9.30017
▁sheet	-9.30059
▁pca	-9.30137
.5.	-9.30205
>	-9.30254
gm	-9.30268
▁degenerative	-9.30296
▁uop	-9.30566
▁68	-9.30635
▁simv	-9.30635
▁though	-9.30642
▁orally	-9.30665
active	-9.30725
▁ms	-9.30743
▁degree	-9.3082
▁assist	-9.30886
▁infiltrates	-9.3105
▁19	-9.31088
▁artifact	-9.31097
numeric	-9.31105
▁ag	-9.3112
▁subdural	-9.31287
fax	-9.31363
sc	-9.31398
▁route	-9.31511
▁notified	-9.31676
▁1900-0700	-9.31676
▁33	-9.31679
▁associated	-9.3176
▁levo	-9.31796
▁swallow	-9.32058
▁continuous	-9.32185
▁maintained	-9.3224
▁vt	-9.32241
▁pale	-9.32317
▁segment	-9.32402
▁rec	-9.32452
▁infarct	-9.32597
▁along	-9.32728
telephone	-9.32764
for	-9.32857
▁na	-9.3287
at	-9.32949
▁200	-9.33135
▁superior	-9.33151
▁coverage	-9.33245
▁afof	-9.33335
▁plans	-9.33391
▁ad	-9.33682
▁lg	-9.33685
▁teeth	-9.33748
▁speech	-9.33757
▁seizure	-9.34128
▁cp	-9.34192
#1	-9.34199
▁water	-9.3422
▁pacer	-9.34286
▁mean	-9.34306
▁fs	-9.34347
▁spoke	-9.34502
▁cbc	-9.34574
▁trigger	-9.34615
▁cooperative	-9.34659
▁grams	-9.34741
▁shortness	-9.34747
▁question	-9.34755
▁related	-9.34796
▁short	-9.34824
▁ekg	-9.34863
this	-9.34865
▁gallbladder	-9.3488
▁nl	-9.34912
▁brisk	-9.34986
12	-9.353
▁loose	-9.35302
▁mcg	-9.35311
▁rib	-9.35341
▁cannula	-9.35348
ic	-9.35465
▁opens	-9.35536
▁complications	-9.3563
▁hemodynamics	-9.35646
▁bilious	-9.35997
▁waves	-9.3611
▁gag	-9.36208
▁service	-9.3622
▁agitation	-9.36266
▁access	-9.36333
▁arrival	-9.3636
▁social	-9.36512
▁overload	-9.36517
▁collapse	-9.36612
▁regular	-9.36657
family	-9.3693
02	-9.36967
▁stimuli	-9.37114
▁cirrhosis	-9.37234
▁physical	-9.37246
▁congestive	-9.37267
▁anxious	-9.37358
▁sicu	-9.37463
▁coccyx	-9.37538
▁patchy	-9.37579
▁presented	-9.37642
▁wk	-9.37773
▁cmh	-9.37824
▁three	-9.37862
▁intermittent	-9.38005
▁qrs	-9.38077
▁go	-9.38079
▁alt	-9.38125
▁collar	-9.38197
▁prong	-9.38238
▁conts	-9.38342
monitor	-9.38393
▁different	-9.38426
▁ecg	-9.38557
▁78	-9.38571
temp	-9.38619
▁inr	-9.38624
▁covered	-9.38654
▁sucks	-9.38716
▁amp	-9.38745
▁setting	-9.38783
▁lobes	-9.38845
▁sbt	-9.38951
press	-9.3896
▁ccu	-9.38977
▁spit	-9.39165
▁paced	-9.39184
▁developmental	-9.39191
▁boluses	-9.39268
▁impaired	-9.39292
▁**],	-9.39324
▁copious	-9.39346
▁frequently	-9.39397
▁density	-9.39538
▁66	-9.39573
▁just	-9.39942
▁including	-9.40023
▁64	-9.4016
▁despite	-9.4054
▁take	-9.40541
50	-9.40674
aortic	-9.40681
#2	-9.40689
▁discomfort	-9.4073
▁loss	-9.40848
▁except	-9.40899
time	-9.40927
▁38	-9.41125
▁therapy	-9.41308
tolerating	-9.4131
▁bottling	-9.41467
▁j	-9.41489
▁extensive	-9.41565
▁every	-9.4183
▁wheezes	-9.41988
▁mode	-9.42067
▁grade	-9.42157
▁lesion	-9.42523
▁dropped	-9.42607
▁31	-9.42643
▁somewhat	-9.42671
▁extubate	-9.42846
▁end	-9.42986
▁vss	-9.43031
▁upon	-9.43061
▁vertebral	-9.43079
▁light	-9.43148
▁educate	-9.43204
▁shock	-9.43272
▁mediastinum	-9.43311
▁emotional	-9.43442
▁spo	-9.43496
▁digits	-9.43543
▁37	-9.43647
▁vented	-9.43647
▁67	-9.43689
▁62	-9.43703
▁similar	-9.43769
▁marked	-9.4389
▁main	-9.43979
▁checked	-9.43997
▁59	-9.44103
▁7.5	-9.44193
▁gavaged	-9.44254
25	-9.44303
▁pulled	-9.44331
▁63	-9.44331
▁69	-9.44366
▁dialysis	-9.44387
▁thickening	-9.44405
▁masses	-9.44428
▁definite	-9.44575
▁58	-9.4476
▁basilar	-9.44893
initials	-9.44946
bili	-9.45042
▁we	-9.45082
▁abgs	-9.45113
▁72	-9.45163
▁74	-9.45193
▁resting	-9.45268
ccu	-9.45449
▁lethargic	-9.45484
pain	-9.45531
▁drifts	-9.45637
▁periods	-9.45679
▁treatment	-9.45741
▁sternotomy	-9.45824
▁ho	-9.45917
▁sternal	-9.45926
▁57	-9.4595
▁audible	-9.46136
▁elevation	-9.4631
▁recommended	-9.46327
▁con	-9.46418
▁bottled	-9.46471
▁anxiety	-9.46481
▁pmh	-9.46594
▁acidosis	-9.46633
▁quadrant	-9.46663
▁85	-9.46671
▁collection	-9.46674
normal	-9.46695
▁vasculature	-9.46833
▁confused	-9.46914
▁deviation	-9.46941
▁17	-9.46953
▁56	-9.47015
▁26**]	-9.4711
▁portal	-9.47137
status	-9.47222
▁76	-9.47312
▁events	-9.47377
▁lib	-9.47435
▁grossly	-9.47454
▁cool	-9.47515
▁productive	-9.47594
▁borderline	-9.47646
▁joint	-9.47687
▁nebs	-9.48018
▁77	-9.4803
▁70'	-9.48048
▁overnoc	-9.48252
▁61	-9.48263
▁54	-9.48345
▁drop	-9.48435
-[**	-9.48572
150	-9.48616
▁53	-9.4877
sicu	-9.4879
▁informed	-9.48807
▁lesions	-9.48862
▁sinuses	-9.48977
▁promod	-9.49
▁neb	-9.49188
spine	-9.49209
▁af	-9.49319
▁relief	-9.49627
▁ic	-9.49665
▁aline	-9.49812
▁ci	-9.50194
▁satisfactory	-9.50549
▁dim	-9.50878
▁bag	-9.5094
▁avr	-9.50949
▁passing	-9.51135
▁axial	-9.51136
▁move	-9.51142
▁110	-9.51209
▁conduction	-9.51311
▁stroke	-9.51338
▁precautions	-9.51461
nicu	-9.51477
▁pedal	-9.51488
▁turning	-9.5159
▁71	-9.51608
▁demonstrate	-9.51626
nd	-9.51723
▁rare	-9.51742
▁notept	-9.51785
▁aeration	-9.51846
▁ward	-9.52046
▁nurse	-9.52053
branch	-9.5206
▁tv	-9.52119
▁each	-9.52233
▁demonstrates	-9.52306
▁should	-9.5238
▁(4	-9.52433
▁52	-9.52734
peep	-9.5301
▁normally	-9.53028
▁addendum	-9.53062
▁79	-9.53119
▁unknown	-9.53178
▁him	-9.5318
▁hypotensive	-9.53311
▁ivp	-9.53314
▁attempts	-9.53479
▁lv	-9.5366
▁return	-9.53675
▁bone	-9.5368
▁oac	-9.5392
.#2	-9.54098
▁fevers	-9.54214
▁shoulder	-9.5426
▁49	-9.5431
▁stated	-9.54345
▁73	-9.54409
ganz	-9.54584
▁spontaneous	-9.54854
▁long	-9.55065
▁newborn	-9.55099
▁bipap	-9.55268
▁doing	-9.55401
▁47	-9.55521
▁0700-1900	-9.55718
▁amber	-9.55865
▁controlled	-9.55995
▁bbs	-9.55998
▁portion	-9.56039
▁gent	-9.56107
sats	-9.562
atrial	-9.56222
▁1.5	-9.56331
▁ica	-9.56399
▁wrist	-9.56415
▁ago	-9.56578
▁44	-9.56641
▁([**	-9.56654
▁studies	-9.56886
▁green	-9.57302
▁lt	-9.5734
▁aneurysm	-9.57373
▁set	-9.57784
▁51	-9.57786
▁radial	-9.57941
▁desat	-9.57978
▁oxygen	-9.57982
▁nt	-9.58022
▁(2)	-9.58028
▁cardiopulmonary	-9.58227
▁presently	-9.58274
▁stim	-9.5835
▁parenchymal	-9.58357
▁appearing	-9.58382
▁precordial	-9.58509
▁delay	-9.58638
▁reactive	-9.58699
▁dsd	-9.58704
▁-77	-9.58843
▁rash	-9.59009
▁39	-9.59055
indication	-9.59071
mom	-9.59077
▁second	-9.59103
▁46	-9.59106
tube	-9.59118
▁colon	-9.59184
▁hernia	-9.59413
▁went	-9.59488
▁2.5	-9.5967
26	-9.59705
▁command	-9.59798
▁rapid	-9.59895
▁passed	-9.59921
low	-9.59954
▁arf	-9.59961
▁lumbar	-9.601
▁give	-9.60132
▁spell	-9.60185
▁sheepskin	-9.60191
▁diaper	-9.60252
▁healing	-9.60416
▁absent	-9.60455
▁followup	-9.60461
▁chamber	-9.60466
▁pancreatitis	-9.60597
▁terminating	-9.60669
▁slept	-9.60669
▁weakness	-9.60717
▁84	-9.60788
▁cal	-9.60949
▁where	-9.60952
findings	-9.61061
▁fed	-9.61187
▁neonatology	-9.61273
▁slow	-9.61274
▁loving	-9.6138
▁biliary	-9.61394
▁intra	-9.61428
▁resection	-9.61439
▁girth	-9.61609
▁ventricles	-9.61622
▁albuterol	-9.6163
q	-9.61759
▁-76	-9.61789
▁pacing	-9.61848
▁enlargement	-9.6191
▁brings	-9.61947
▁abnormal	-9.62069
▁42	-9.62311
mitral	-9.62588
31**]	-9.62634
▁fair	-9.62698
▁prolonged	-9.62731
▁basal	-9.62761
▁comfortably	-9.63094
▁labile	-9.63156
▁beats	-9.63203
▁arrest	-9.63227
▁replaced	-9.63311
▁metastatic	-9.63556
▁83	-9.63583
▁husband	-9.63667
28	-9.6376
▁hemidiaphragm	-9.6381
▁wob	-9.63881
▁tent	-9.63962
▁88	-9.64007
▁slowly	-9.64031
▁medicated	-9.64053
▁oxygenation	-9.64239
▁zone	-9.64301
▁admit	-9.64382
access	-9.6442
▁tolerance	-9.6459
ra	-9.64623
▁risk	-9.64644
▁pacemaker	-9.64663
chest	-9.6468
▁tomonitor	-9.64697
▁ischemic	-9.64722
▁life	-9.64747
▁eve	-9.64841
▁brady	-9.64946
▁iron	-9.65109
er	-9.65117
▁trial	-9.65147
▁concern	-9.65454
▁provided	-9.65616
▁costophrenic	-9.65671
▁put	-9.65946
▁scheduled	-9.65974
clinical	-9.65979
▁doses	-9.65986
▁mso	-9.66039
▁bladder	-9.66132
▁tte	-9.662
▁obtain	-9.66255
▁jp	-9.66305
▁stopped	-9.66326
▁cap	-9.6633
▁nonspecific	-9.66356
▁show	-9.66597
▁81	-9.66632
▁developed	-9.66632
▁stage	-9.66658
▁restless	-9.66682
▁orders	-9.66752
▁op	-9.66819
▁integrity	-9.66861
▁fe	-9.66919
▁requirement	-9.6694
▁administered	-9.67089
intraventricular	-9.67098
▁ankle	-9.67395
▁phone	-9.67532
▁mi	-9.6757
▁positioning	-9.67636
▁like	-9.67713
▁asked	-9.6772
▁spont	-9.67799
▁41	-9.67921
▁balance	-9.67922
▁43	-9.6799
▁bronch	-9.68025
▁diaphragm	-9.68053
▁serous	-9.68118
▁limb	-9.68234
▁even	-9.68288
▁generalized	-9.68343
doppler	-9.68361
▁recieved	-9.68372
▁nsg	-9.68459
▁82	-9.68706
▁coumadin	-9.68752
▁fields	-9.68764
▁mostly	-9.68976
▁tracingof	-9.69037
▁strength	-9.69105
▁freq	-9.69359
▁5**]	-9.69388
renal	-9.6949
▁sliding	-9.69545
▁hypertensive	-9.69707
▁riss	-9.6972
▁rectal	-9.69826
▁rv	-9.6994
▁organ	-9.69967
▁titrate	-9.70019
▁encouraged	-9.70036
▁trace	-9.70106
▁resident	-9.70187
▁hep	-9.70271
▁86	-9.70313
▁le	-9.70426
▁mn	-9.70426
▁returned	-9.70528
▁space	-9.70529
▁occasionally	-9.70638
▁pro	-9.70656
▁pnd	-9.70672
▁longer	-9.70689
▁compression	-9.71125
40	-9.71224
▁emphysema	-9.71255
▁cr	-9.71255
▁haldol	-9.71386
▁abscess	-9.71395
▁arteries	-9.71512
▁followed	-9.71587
.2.	-9.71623
▁pts	-9.71864
▁ntg	-9.71951
po	-9.72149
▁arterial	-9.72222
▁fent	-9.72319
▁simple	-9.72618
▁liters	-9.72878
▁term	-9.72951
▁0.5	-9.73259
demographics	-9.73415
meq	-9.73426
▁noc	-9.73483
▁pma	-9.73604
compared	-9.73814
▁gastric	-9.73878
▁tachypnea	-9.73883
▁nontender	-9.73891
▁wakes	-9.73901
▁described	-9.73914
interpretation	-9.73987
▁symmetric	-9.74026
▁creat	-9.74141
▁gm	-9.74265
▁possibly	-9.74297
▁bld	-9.74411
▁bradys	-9.7453
▁fellow	-9.74865
▁hydronephrosis	-9.74871
of	-9.74937
▁met	-9.74959
▁triggering	-9.74965
▁hydralazine	-9.7497
▁regarding	-9.74995
▁objective	-9.75006
▁vomiting	-9.75055
▁subcostal	-9.75214
▁presents	-9.75218
▁7**]	-9.75257
conclusions	-9.75302
▁illness	-9.75494
▁cvl	-9.75505
▁feet	-9.75511
▁delirium	-9.75618
▁visiting	-9.75671
▁agree	-9.75706
▁rx	-9.75812
▁meq	-9.75823
▁pressures	-9.7584
▁suboptimal	-9.75846
▁inc	-9.75938
▁resolving	-9.76055
▁linear	-9.76285
▁percocet	-9.76291
▁image	-9.76425
/=.	-9.76437
▁bile	-9.76493
▁cloudy	-9.76552
▁inserted	-9.76576
****************	-9.76587
▁spinal	-9.76677
▁suggest	-9.76857
▁own	-9.76876
▁pulse	-9.76926
▁extra	-9.7705
▁dm	-9.77057
▁etoh	-9.77075
▁->	-9.77153
sleeping	-9.77205
▁hg	-9.77229
▁angle	-9.77336
▁fusion	-9.77352
▁syndrome	-9.77383
▁tissues	-9.77445
▁tests	-9.77456
▁id	-9.77479
▁indicated	-9.77509
▁dnr	-9.77554
▁birth	-9.77761
▁duct	-9.77843
0	-9.77844
▁attendingdol	-9.78245
▁perihilar	-9.78295
▁unresponsive	-9.78331
▁recs	-9.78493
▁pleasant	-9.78495
:[**	-9.78599
-11	-9.78624
as	-9.78713
▁trivial	-9.78729
▁persists	-9.78986
▁moderately	-9.79222
140	-9.79233
▁notes	-9.79348
hour	-9.7941
▁arrived	-9.795
▁legs	-9.79577
▁monday	-9.79598
▁lumen	-9.79662
▁facial	-9.79967
il	-9.80111
▁hyperbili	-9.8012
▁ercp	-9.80175
▁95	-9.80189
▁repositioned	-9.80268
▁cord	-9.80292
▁cmv	-9.80436
▁imaging	-9.80469
imp	-9.80544
fib	-9.80556
▁resolution	-9.8071
▁87	-9.80744
▁liquids	-9.80758
▁settles	-9.8076
▁adjacent	-9.80919
▁teaching	-9.81147
▁significantly	-9.81266
▁gms	-9.81268
▁dilatation	-9.81296
▁recently	-9.81477
▁cell	-9.81623
▁serosang	-9.81711
▁30'	-9.81793
▁matter	-9.81837
▁remainder	-9.81861
▁middle	-9.81918
▁previoustracing	-9.8193
▁recheck	-9.82071
▁av	-9.82162
▁regimen	-9.8219
assessment	-9.82241
▁perfusion	-9.82355
▁afsf	-9.82373
▁guiac	-9.82382
▁tid	-9.82391
tf	-9.8243
▁intermittently	-9.82474
▁specifics	-9.82537
▁exp	-9.82596
▁maps	-9.82652
▁dobhoff	-9.82671
▁*	-9.82851
▁involving	-9.82868
cares	-9.82972
▁femur	-9.83028
▁hsm	-9.83198
▁briefly	-9.832
▁wire	-9.8327
▁dopamine	-9.83321
▁jaundiced	-9.83882
▁nutritional	-9.83892
invasive	-9.83944
▁visited	-9.84037
▁bc	-9.84411
sat	-9.84479
▁sugars	-9.84511
▁sister	-9.84584
sec	-9.84613
▁parenting	-9.84634
▁89	-9.84653
etechnical	-9.84712
bpm	-9.84729
▁subarachnoid	-9.84833
▁discuss	-9.84853
▁gravity	-9.84916
60	-9.8493
▁spontaneously	-9.84969
▁headache	-9.85026
▁tosupport	-9.85056
▁ph	-9.85056
▁clean	-9.85068
lb	-9.85177
▁replete	-9.85193
▁prominence	-9.8524
▁cells	-9.85255
▁transfusion	-9.85335
▁metabolic	-9.85346
▁diameter	-9.85353
▁pressors	-9.8538
▁safety	-9.85388
▁ds	-9.85434
pulm	-9.85447
▁obese	-9.8545
▁came	-9.85621
▁febrile	-9.85723
▁make	-9.85901
▁aggressive	-9.85925
%	-9.85951
▁160	-9.85968
▁refill	-9.85991
▁(3)	-9.86086
▁ir	-9.86106
▁amiodarone	-9.86107
▁400	-9.86135
▁appeared	-9.86213
▁inpatient	-9.86252
▁distention	-9.86319
▁staples	-9.86329
▁60'	-9.86373
▁breakdown	-9.86412
▁repositioning	-9.86462
▁#3	-9.86591
▁peak	-9.86613
▁calcifications	-9.86631
▁diff	-9.86694
#3	-9.86699
pfi	-9.86711
▁provision	-9.86986
▁esophageal	-9.87027
▁zosyn	-9.8713
▁independent	-9.87212
▁transition	-9.87216
▁jaundice	-9.87267
▁close	-9.87444
▁supportive	-9.87482
▁pvcs	-9.87494
▁palp	-9.87676
▁planned	-9.87747
▁tachypneic	-9.87813
▁pmv	-9.87859
▁flagyl	-9.87876
▁partially	-9.87913
lvef	-9.87976
alt	-9.87976
▁hardware	-9.87994
bm	-9.88087
▁films	-9.88181
▁thrombus	-9.88248
ps	-9.88267
complete	-9.88351
▁concerning	-9.88377
▁incident	-9.88446
.#6	-9.8846
▁stimulation	-9.88525
▁calm	-9.88545
▁perl	-9.8856
▁symptoms	-9.88644
▁ii	-9.88716
▁firm	-9.88823
▁words	-9.88837
▁pr	-9.88885
▁interpretation	-9.88901
▁apparent	-9.88945
▁250	-9.89073
▁born	-9.89098
▁comparisons	-9.89484
▁insertion	-9.89601
▁restraints	-9.8972
▁beginning	-9.89748
▁arousable	-9.89782
▁1**]	-9.89873
▁detailed	-9.90045
▁completed	-9.90072
▁demand	-9.90239
▁withcares	-9.903
▁bf	-9.90376
▁dol	-9.90406
▁arms	-9.90506
▁reported	-9.90541
▁tolerate	-9.90556
▁confirm	-9.90688
▁intervention	-9.90878
▁fem	-9.91167
▁monitored	-9.91182
pericardium	-9.91228
▁test	-9.91318
alert	-9.91341
▁iabp	-9.91425
▁car	-9.91546
▁softly	-9.91563
▁babygram	-9.91709
120	-9.91718
▁cerebral	-9.91734
▁irritable	-9.91902
▁careview	-9.9194
▁heard	-9.92037
▁ventilator	-9.92044
▁synchronously	-9.92118
▁interim	-9.92562
abdomen	-9.92576
▁review	-9.92594
▁tolerates	-9.92698
▁hus	-9.92744
▁fistula	-9.92793
▁offer	-9.92827
▁getting	-9.92888
parenting	-9.92894
▁brought	-9.92924
▁evaluated	-9.93044
▁attempting	-9.93061
▁septum	-9.93142
▁acceptable	-9.93221
▁thrombosis	-9.93302
▁count	-9.93325
iv	-9.93411
▁suggestive	-9.93652
hours	-9.93684
▁bil	-9.94107
▁reports	-9.94249
▁manufacturer	-9.94459
▁cva	-9.94495
32	-9.94515
▁receive	-9.94547
▁nnp	-9.94605
oz	-9.94781
▁dark	-9.9488
▁examined	-9.94913
▁another	-9.94977
▁belly	-9.95041
now	-9.95058
▁noteday	-9.95085
▁gtts	-9.95131
▁screen	-9.95164
▁medial	-9.95197
▁theprevious	-9.95251
▁suggesting	-9.95351
▁dysynchrony	-9.95358
soft	-9.95599
▁exclude	-9.95711
▁median	-9.9586
parents	-9.95937
▁running	-9.96036
▁subcutaneous	-9.96058
▁alignment	-9.961
addendum	-9.96166
▁semi	-9.96176
▁part	-9.9634
▁ss	-9.96429
▁yes	-9.96644
▁treat	-9.9665
▁sw	-9.96657
▁gu	-9.96672
▁feeling	-9.96699
▁1)	-9.96795
▁ex	-9.96877
▁expected	-9.9701
▁try	-9.97016
▁midnight	-9.97025
▁axillary	-9.97132
▁asleep	-9.97159
▁hemithorax	-9.9723
▁essentially	-9.97244
▁biopsy	-9.97273
▁ileus	-9.97365
▁dilantin	-9.97373
▁planning	-9.9754
▁help	-9.97568
ci	-9.97593
▁ready	-9.97633
▁lr	-9.97684
▁vea	-9.97881
20.	-9.97951
▁flatus	-9.98011
moderate	-9.9858
▁apex	-9.98614
▁pda	-9.98626
▁because	-9.98771
▁measuring	-9.98786
▁epidural	-9.98811
▁aspect	-9.98825
▁trached	-9.98841
▁making	-9.9892
units	-9.98992
▁confusion	-9.99014
▁near	-9.99068
▁clot	-9.99292
▁sucking	-9.99392
▁case	-9.9941
▁dislocation	-9.99427
▁revealed	-9.99464
▁ew	-9.9948
yo	-9.99486
▁complicated	-9.99555
▁promote	-9.99657
▁postoperative	-9.99658
▁multifocal	-9.99667
▁ga	-9.99802
▁98	-9.99864
▁ulcer	-9.99925
▁superficial	-10.0003
▁fully	-10.0013
▁40'	-10.0019
▁major	-10.0026
▁surrounding	-10.0028
▁esrd	-10.0038
▁seems	-10.0043
▁systems	-10.0046
▁potential	-10.0051
clear	-10.0052
height	-10.0053
▁allowing	-10.0067
▁svo	-10.007
▁hydrocephalus	-10.0071
▁96	-10.0076
tricuspid	-10.0084
▁extending	-10.0107
▁20'	-10.0112
▁(4)	-10.0113
▁calcification	-10.0129
▁clips	-10.0136
=150	-10.0143
▁pls	-10.0153
▁consent	-10.0165
▁tricuspid	-10.0168
▁painful	-10.0177
▁decreasing	-10.0178
▁popliteal	-10.0178
bsa	-10.019
▁ends	-10.0191
▁1/2	-10.0192
▁demographics	-10.0202
▁pac	-10.021
re	-10.0225
labs	-10.0228
es	-10.0232
▁showing	-10.0238
13	-10.0239
90	-10.0243
▁consistently	-10.0245
▁point	-10.0246
▁cream	-10.0256
▁tiny	-10.0259
▁double	-10.0265
▁og	-10.0266
▁wheezing	-10.0295
▁fascicular	-10.0301
▁ffp	-10.0317
▁mastoid	-10.0323
▁**],[**	-10.034
▁hc	-10.0346
▁positioned	-10.0366
▁21%.	-10.0379
▁twin	-10.0379
dl	-10.038
▁sao	-10.0387
▁primary	-10.041
▁fiber	-10.0416
mod	-10.0419
white	-10.0427
▁include	-10.0428
▁ill	-10.043
▁.5	-10.0431
▁ascending	-10.044
▁going	-10.0448
▁sites	-10.045
▁onset	-10.0452
pulmonary	-10.0464
45	-10.0467
▁duplex	-10.0472
▁responsive	-10.0488
▁sulci	-10.0495
▁gib	-10.0499
160	-10.0504
▁plt	-10.051
▁problem	-10.0516
▁paranasal	-10.0529
▁partial	-10.0537
▁aspirate	-10.0545
▁cbg	-10.0553
▁scattered	-10.0561
▁transports	-10.0563
▁clinically	-10.0566
▁destination	-10.0567
▁updates	-10.0575
▁projects	-10.0576
distended	-10.0583
▁tender	-10.0598
▁pathway	-10.06
ns	-10.0602
▁await	-10.0605
▁bony	-10.0612
▁rounds	-10.0617
▁minimally	-10.0621
1,	-10.0636
▁quickly	-10.0644
▁origin	-10.0652
.6.	-10.0699
14	-10.0715
▁vessels	-10.0728
▁confirmed	-10.0728
▁perrl	-10.0729
ventricular	-10.0729
▁2)	-10.0729
▁yr	-10.0734
▁99	-10.0738
▁sb	-10.0755
▁anemia	-10.0762
▁tr	-10.0765
2-3	-10.0766
▁epi	-10.0769
▁disc	-10.0776
▁field	-10.0779
▁1000	-10.0793
▁100%.	-10.0795
▁nitro	-10.0802
▁drains	-10.0811
▁prematurity	-10.0818
▁trending	-10.0828
mild	-10.0836
▁clamped	-10.0841
▁angio	-10.0849
▁hygiene	-10.0855
▁addition	-10.0866
▁septic	-10.0867
▁icp	-10.0869
▁either	-10.088
▁temporal	-10.088
▁ef	-10.0888
out	-10.0893
▁depression	-10.091
▁want	-10.0917
▁dysfunction	-10.0919
▁tachycardic	-10.092
▁evident	-10.0944
lungs	-10.0963
▁pump	-10.0972
▁600	-10.0985
▁mech	-10.0991
has	-10.1007
baby	-10.1015
▁wks	-10.1017
▁mon	-10.1019
▁duoderm	-10.1035
▁assessed	-10.1038
▁withdrawal	-10.105
▁used	-10.1055
▁regional	-10.106
▁staff	-10.1065
35	-10.1067
▁tlc	-10.107
nnp	-10.1071
▁appetite	-10.1071
▁effort	-10.1078
▁decision	-10.1084
▁kcal	-10.1086
cvs	-10.1095
▁calls	-10.1097
▁diastolic	-10.1104
▁vena	-10.1126
▁recurrent	-10.1135
▁remaining	-10.115
▁focus	-10.1158
▁cyst	-10.1163
▁lip	-10.1167
▁augmentation	-10.1168
▁require	-10.1168
single	-10.117
▁amio	-10.1178
coronary	-10.1185
▁state	-10.1194
▁restart	-10.1198
1-2	-10.1202
diff	-10.1207
▁1600	-10.1209
revisions	-10.1218
▁cava	-10.123
▁ongoing	-10.1237
▁desaturation	-10.1242
▁versus	-10.1252
▁preserved	-10.1252
gastrointestinal	-10.1259
▁average	-10.1267
▁temperature	-10.1275
▁come	-10.1282
non	-10.1284
▁opening	-10.1295
▁stay	-10.1326
80	-10.1331
▁portex	-10.1336
▁persist	-10.134
▁triple	-10.1343
▁nondistended	-10.1348
▁contour	-10.1358
▁protect	-10.1365
events	-10.1366
▁97	-10.1376
▁represents	-10.1378
▁delivery	-10.1398
▁appreciated	-10.1406
▁sheath	-10.1406
able	-10.1411
hct	-10.1418
▁tumor	-10.1437
▁verbal	-10.1446
▁fi	-10.1454
▁perrla	-10.1465
▁consulted	-10.1468
▁wed	-10.1473
diagnostic	-10.1483
▁sodium	-10.1489
▁nares	-10.149
he	-10.1491
▁touch	-10.1494
▁96**]	-10.1494
▁calcified	-10.1503
▁cardiology	-10.1516
cath	-10.1519
▁preop	-10.153
▁3.5	-10.1538
▁esophagus	-10.1538
▁cpt	-10.155
▁request	-10.1556
▁92	-10.1557
▁maternal	-10.1568
▁hypo	-10.1572
▁immaturity	-10.1572
▁administration	-10.1576
▁reg	-10.1589
▁rij	-10.1589
well	-10.1598
▁calcium	-10.16
▁turn	-10.1605
▁speaking	-10.1605
▁projecting	-10.1605
▁adm	-10.1609
▁seizures	-10.1614
▁suck	-10.1625
cabg	-10.1638
good	-10.1648
▁(+)	-10.1652
admission	-10.1653
2):	-10.1655
▁er	-10.1664
▁req	-10.1664
▁94	-10.1668
▁diuril	-10.1697
▁125	-10.1698
lytes	-10.1705
▁1200	-10.1706
▁brief	-10.1712
▁seat	-10.1715
▁lactulose	-10.172
▁page	-10.1743
▁hemodynamic	-10.1744
▁reglan	-10.1746
▁2-3	-10.1746
▁300	-10.1749
▁them	-10.1751
▁sdh	-10.1751
▁electrolytes	-10.1751
▁lactate	-10.1755
▁chart	-10.1762
▁ice	-10.1765
▁thoracentesis	-10.1806
▁qsr	-10.1809
▁advancing	-10.181
afib	-10.1822
▁vascularity	-10.1837
continues	-10.1844
▁ar	-10.1845
▁person	-10.1845
▁captopril	-10.1849
▁brachial	-10.1852
▁discharged	-10.1854
▁swallowing	-10.1854
▁paracentesis	-10.1866
▁diarrhea	-10.1867
▁infusion	-10.187
▁pan	-10.1876
▁representing	-10.1879
▁failed	-10.188
▁perform	-10.1894
▁intolerance	-10.1896
▁layering	-10.1912
▁60%	-10.1945
75	-10.1953
▁nipple	-10.1953
▁bacteremia	-10.196
▁consolidations	-10.1971
▁defect	-10.1977
▁thickness	-10.2003
▁dobbhoff	-10.201
▁ranging	-10.201
off	-10.2022
▁xray	-10.2026
▁art	-10.2028
▁becomes	-10.2036
▁material	-10.2037
increased	-10.2061
▁worse	-10.2061
▁least	-10.2085
▁oozing	-10.2089
▁edematous	-10.2092
▁felt	-10.2093
▁blanket	-10.2102
▁father	-10.2104
▁sleepy	-10.2105
sepsis	-10.2109
▁50'	-10.2114
▁mag	-10.2123
▁1800	-10.2123
▁transfused	-10.2151
equal	-10.2154
yellow	-10.2164
▁93	-10.2167
▁system	-10.2175
▁105	-10.2179
▁etiology	-10.2182
▁vessel	-10.2187
▁radiologist	-10.2206
▁participate	-10.2212
▁ok	-10.2213
▁waveforms	-10.2216
▁cholecystitis	-10.2216
▁huo	-10.2226
▁widening	-10.2233
▁thisshift	-10.2236
▁pathology	-10.2245
general	-10.2252
▁adeq	-10.2261
▁nbp	-10.2267
▁reddened	-10.2267
/50	-10.2274
▁il	-10.2274
▁four	-10.228
▁mrsa	-10.2293
▁hob	-10.2306
▁late	-10.2323
▁mushroom	-10.2332
▁tips	-10.2335
▁delayed	-10.2349
▁entry	-10.2351
▁ivc	-10.2352
70	-10.2355
▁occas	-10.2373
mae	-10.2378
▁sagittal	-10.2391
/=,	-10.2393
▁starting	-10.241
▁extends	-10.2419
▁exacerbation	-10.2425
support	-10.245
▁diabetes	-10.2452
▁fib	-10.2458
▁wheeze	-10.2466
▁me	-10.2469
▁offered	-10.2473
▁vancomycin	-10.2478
▁medications	-10.2487
▁draw	-10.2499
▁what	-10.2499
fluid	-10.25
▁potassium	-10.2502
▁marginal	-10.2504
▁period	-10.2511
▁drng	-10.2516
▁crrt	-10.2521
▁serial	-10.2521
▁speak	-10.2527
▁cavoatrial	-10.2528
wk	-10.2547
▁improve	-10.2553
▁anesthesia	-10.2558
condition	-10.2558
▁imv	-10.2578
▁2+	-10.258
▁external	-10.2583
▁buttocks	-10.26
▁ha	-10.26
▁finding	-10.2602
-12	-10.2607
interatrial	-10.261
j	-10.2619
▁colored	-10.2628
sx	-10.2636
▁brother	-10.2647
▁------	-10.2668
▁103	-10.2669
▁written	-10.267
▁prbcs	-10.2681
▁incisional	-10.2681
soc	-10.2682
#4	-10.2695
▁milrinone	-10.2701
▁mv	-10.2708
▁therapeutic	-10.2709
▁markings	-10.2711
▁abp	-10.2722
▁nco	-10.2724
▁pull	-10.2725
▁presence	-10.2744
▁complex	-10.2755
▁tibial	-10.2757
▁sah	-10.2758
▁11**])	-10.276
▁acquired	-10.2766
▁corresponding	-10.2772
▁narrowing	-10.2773
lnc	-10.2778
telemetry	-10.278
▁infectious	-10.2781
▁ciwa	-10.2809
▁kub	-10.2811
feeds	-10.2814
16	-10.2831
▁dissection	-10.2834
hc	-10.2839
▁accident	-10.284
▁notebaby	-10.2856
▁creatinine	-10.2858
▁metoprolol	-10.2885
▁1500	-10.2886
given	-10.2886
▁eeg	-10.2902
▁dopa	-10.2902
▁depressed	-10.2908
▁supps	-10.291
▁emesis	-10.2916
▁office	-10.2919
▁104	-10.2931
▁section	-10.2935
▁mvc	-10.2949
▁sediment	-10.295
▁detected	-10.2958
▁albumin	-10.2971
▁basilic	-10.2972
▁markedly	-10.2978
-100	-10.2979
▁preterm	-10.299
▁650	-10.2991
▁lymphoma	-10.2992
▁stones	-10.2993
▁requested	-10.3
▁towards	-10.3005
/40	-10.3006
▁anteroseptal	-10.3035
▁wake	-10.3038
▁arch	-10.3052
▁newly	-10.306
▁commode	-10.3062
gent	-10.3063
▁their	-10.3081
aorta	-10.3081
▁lp	-10.3085
▁sugar	-10.3098
▁rds	-10.3102
▁dp	-10.3104
▁102	-10.3109
▁outside	-10.3111
▁included	-10.3125
▁lift	-10.3128
▁recommend	-10.3133
▁initiated	-10.3142
3-4	-10.3156
▁tfi	-10.3157
▁add	-10.3165
▁milk	-10.3174
▁ventilated	-10.3175
▁vac	-10.3175
▁flutter	-10.3191
▁encouragement	-10.3192
she	-10.3195
▁filling	-10.3215
▁maxillary	-10.3228
possible	-10.3229
▁nrb	-10.3232
▁toes	-10.3232
▁8**]	-10.3233
▁reflect	-10.3242
us	-10.3255
▁filter	-10.3255
▁invested	-10.3262
▁lle	-10.3263
feeding	-10.3264
▁tamponade	-10.3266
▁observed	-10.3281
▁powder	-10.3282
▁95%	-10.3285
▁configuration	-10.3291
▁radiology	-10.3301
▁rising	-10.3302
▁sips	-10.3303
▁liter	-10.331
▁70%	-10.3311
▁possibility	-10.3313
▁motor	-10.3317
▁fri	-10.3318
cr	-10.3318
▁la	-10.332
noted	-10.3326
▁nd	-10.3327
stooling	-10.3327
▁pancreatic	-10.3328
▁alveolar	-10.333
▁seal	-10.3331
▁101	-10.3339
systolic	-10.3345
▁compressibility	-10.3351
full	-10.3358
▁bicarb	-10.3365
▁result	-10.337
cd	-10.3374
▁gave	-10.3374
fio	-10.3375
▁12.5	-10.3378
▁airspace	-10.3396
▁#1"	-10.3399
▁bronchoscopy	-10.3399
110	-10.3402
▁bg	-10.3407
ms	-10.3408
>55%).	-10.3411
▁uvc	-10.3412
▁routine	-10.3415
cal	-10.3417
▁unilat	-10.3418
▁mins	-10.3419
▁nospits	-10.342
discharge	-10.3424
pro	-10.3426
▁91	-10.3432
▁cdi	-10.3436
▁indeterminate	-10.344
/=	-10.3447
▁noon	-10.3447
▁pupil	-10.3462
▁worsened	-10.3467
▁uti	-10.3471
▁rue	-10.3481
▁structurally	-10.3481
▁ob	-10.3487
▁members	-10.3494
there	-10.3501
▁tortuous	-10.3502
▁dx	-10.3508
▁third	-10.3524
▁ich	-10.3529
▁beat	-10.3535
▁orif	-10.3538
▁balloon	-10.3545
but	-10.3547
▁stick	-10.3553
▁multi	-10.3557
▁lue	-10.3558
▁pulling	-10.3563
▁1300	-10.3588
/60	-10.359
▁ips	-10.3594
▁switched	-10.36
▁blunting	-10.3606
▁mec	-10.3607
are	-10.3607
blood	-10.3609
ls	-10.361
▁sitting	-10.361
▁elbow	-10.3617
▁rebound	-10.3618
▁begin	-10.3636
▁root	-10.3638
it	-10.3638
▁100'	-10.3643
▁fairly	-10.3643
per	-10.3648
▁velocities	-10.365
▁dropping	-10.3658
▁30-60	-10.366
▁1700	-10.3661
▁boundaries	-10.3661
▁pelvic	-10.3662
▁32**]	-10.3665
▁loculated	-10.3678
▁fine	-10.3682
▁thru	-10.3684
▁pad	-10.3704
▁reflexes	-10.3711
▁documented	-10.3715
▁repolarization	-10.3722
▁requires	-10.3723
▁series	-10.3725
▁qtc	-10.373
-3	-10.3759
▁gram	-10.3767
▁standing	-10.3788
▁portions	-10.379
▁hearing	-10.3792
▁dilt	-10.3797
rubinemia	-10.3813
chf	-10.3813
▁visible	-10.3818
▁1.8	-10.3823
▁poc	-10.3833
▁relatively	-10.3835
▁parietal	-10.3839
pink	-10.3844
▁pao	-10.385
▁month	-10.3851
▁carebaby	-10.3854
▁5/5	-10.386
▁3-4	-10.3863
received	-10.3878
▁concerned	-10.3889
▁working	-10.3905
▁takes	-10.3908
.#7	-10.391
▁nods	-10.3926
▁cpr	-10.3941
▁paralyzed	-10.3943
▁medication	-10.3943
▁began	-10.3948
▁clots	-10.3951
▁minor	-10.3961
125	-10.3964
▁30-50	-10.3974
dni	-10.3975
▁becoming	-10.3977
▁brachiocephalic	-10.3977
▁unclear	-10.3996
-60	-10.3997
one	-10.3997
flat	-10.4
▁icd	-10.4007
small	-10.4007
▁located	-10.401
▁thigh	-10.4011
foley	-10.4019
▁sp	-10.4021
▁120'	-10.4033
▁hypoxic	-10.4043
▁fa	-10.405
aga	-10.4055
▁guidance	-10.4058
upright	-10.4074
▁tracheal	-10.4079
2130	-10.4085
care	-10.4089
▁tenderness	-10.4096
▁etc	-10.4122
▁holding	-10.4125
▁feels	-10.4129
▁tachy	-10.4134
▁event	-10.4135
▁turns	-10.4139
▁many	-10.4145
pca	-10.4151
▁abuse	-10.4154
mother	-10.4163
▁screening	-10.4172
▁notepe	-10.4177
▁breastfeeding	-10.4193
-80	-10.4197
ext	-10.4197
▁inlet	-10.42
mins	-10.4201
▁urinary	-10.4209
▁drg	-10.4224
▁barrier	-10.4228
baseline	-10.423
▁pneumo	-10.424
▁antibiotic	-10.4243
▁craniotomy	-10.4243
▁compatible	-10.4245
▁cleared	-10.4253
nt	-10.4257
review	-10.4262
▁combivent	-10.4268
▁how	-10.4282
%.	-10.4284
▁cobedding	-10.4286
updated	-10.4296
▁nipride	-10.4307
▁tract	-10.4311
▁barium	-10.432
▁iii	-10.4329
co	-10.4329
▁therefore	-10.4329
lateral	-10.4333
▁dependent	-10.4343
▁rle	-10.4345
▁necessary	-10.4346
▁[**220	-10.4347
▁movements	-10.4355
▁mvr	-10.4356
▁sit	-10.4356
▁vasopressin	-10.4358
▁gaining	-10.4366
▁patch	-10.437
ng	-10.437
▁tee	-10.4376
▁alkalosis	-10.4377
▁inability	-10.4378
tol	-10.4387
▁void	-10.439
▁subsequent	-10.4397
▁fluoroscopic	-10.4398
▁slower	-10.4417
▁enzymes	-10.4419
down	-10.4429
▁teens	-10.4432
goals	-10.4435
▁pigtail	-10.4438
▁extent	-10.444
▁lsc	-10.4451
▁parameters	-10.4478
▁mucous	-10.4482
ct	-10.4483
▁septal	-10.4487
▁hourly	-10.4488
▁extremeties	-10.4501
▁needing	-10.4504
▁vital	-10.4506
▁40-60	-10.4508
▁info	-10.4509
▁global	-10.4509
▁larger	-10.4512
▁40%.	-10.4518
▁14**]	-10.4518
-60'	-10.452
▁vitals	-10.4525
2145	-10.4532
▁protonix	-10.4543
▁phos	-10.4544
▁reflex	-10.4544
▁nodule	-10.4548
▁run	-10.4564
all	-10.457
▁lfts	-10.4571
▁ln	-10.4574
▁1-2	-10.4576
▁bilirubin	-10.4576
▁1.7	-10.4579
sr	-10.4582
▁1400	-10.4582
▁repeated	-10.4583
questions	-10.4584
▁soon	-10.4589
36	-10.46
follow	-10.4607
▁los	-10.4611
▁cellulitis	-10.4615
▁1.9	-10.4618
▁skills	-10.4624
▁occipital	-10.4629
▁interpreted	-10.4632
▁enc	-10.4634
▁atrovent	-10.4639
▁umbilical	-10.4641
▁140-160	-10.4648
▁discontinued	-10.4656
▁testes	-10.4677
▁nodding	-10.4677
▁recommendations	-10.4679
▁schedule	-10.4683
▁asthma	-10.4687
▁adjusted	-10.4693
▁parenchyma	-10.4695
-70	-10.47
▁csru	-10.4714
▁kidneys	-10.4716
was	-10.4731
▁voided	-10.4734
▁remove	-10.4734
▁rom	-10.476
▁congested	-10.4776
▁presenting	-10.4792
▁trying	-10.4793
▁steroids	-10.4796
▁my	-10.4799
100	-10.4801
afof	-10.4802
▁diuresed	-10.4805
▁tsicu	-10.4805
▁trachea	-10.4807
▁waveform	-10.481
180	-10.481
pp	-10.4811
exam	-10.4817
▁withdraws	-10.4819
activity	-10.4826
▁19**]	-10.4826
▁30-60'	-10.4829
▁overt	-10.484
▁track	-10.4842
▁coronal	-10.4843
▁1.6	-10.4846
stick	-10.4852
▁respectively	-10.4861
▁2100	-10.4864
end	-10.4872
▁un	-10.4873
comfort	-10.4875
2115	-10.4876
▁looks	-10.4883
▁valium	-10.4887
▁mouthing	-10.489
▁superimposed	-10.4895
▁2.0	-10.4896
▁maew	-10.4902
▁andactive	-10.4905
dispo	-10.4905
▁branch	-10.4907
▁dense	-10.4911
abg	-10.4939
▁you	-10.4939
effusion	-10.4945
supine	-10.4945
▁address	-10.4948
▁inf	-10.4956
▁differentiation	-10.4969
▁extremely	-10.4973
▁antibx	-10.4973
▁gestation	-10.4976
▁dopplerable	-10.4985
▁reduced	-10.4985
▁inbetween	-10.4989
▁bath	-10.499
▁imaged	-10.4993
very	-10.4998
▁shunt	-10.5006
▁positional	-10.5008
▁breaths	-10.5008
today	-10.5011
▁ordering	-10.5011
▁drained	-10.5027
▁toileting	-10.5039
▁inter	-10.5045
▁successful	-10.5046
▁76**])	-10.5055
▁hiv	-10.506
▁component	-10.5061
24.	-10.5066
▁pyrexia	-10.5069
-90	-10.5075
2185	-10.5076
▁device	-10.5084
55	-10.5101
▁nph	-10.5104
▁engorgement	-10.5107
minimal	-10.5109
▁excellent	-10.5111
▁vna	-10.5124
▁fat	-10.5124
▁(1+)	-10.514
▁pod	-10.5147
▁avl	-10.5159
▁"7	-10.5167
post	-10.518
▁projected	-10.5185
▁anterolateral	-10.5186
108	-10.5189
▁reduce	-10.519
▁responding	-10.5197
cvr	-10.5198
▁mucosal	-10.5198
▁8.0	-10.5223
dr	-10.5228
▁answered	-10.5244
▁signal	-10.5248
consider	-10.5262
▁friday	-10.5271
158	-10.5272
needs	-10.5273
▁180	-10.5298
▁avf	-10.5299
-120	-10.5312
▁devices	-10.5317
▁sterile	-10.5328
▁boots	-10.5328
▁raising	-10.5333
▁optiray	-10.5337
ot	-10.534
144	-10.5343
▁2200	-10.5344
▁suct	-10.5345
▁disorder	-10.5346
▁responds	-10.5352
▁106	-10.5362
▁redistribution	-10.5365
▁pronounced	-10.5368
▁suggests	-10.5373
▁adjust	-10.5381
▁likes	-10.5386
▁fell	-10.5389
▁ck	-10.5393
▁video	-10.5394
▁coiled	-10.5394
142	-10.5399
▁approximated	-10.5409
▁approp	-10.5413
integ	-10.5414
▁clearing	-10.5415
▁nstemi	-10.5417
▁**]-	-10.542
▁bottles	-10.5427
▁alcohol	-10.5431
▁protection	-10.5441
▁parent	-10.5442
▁hazy	-10.5451
▁peri	-10.5467
▁pic	-10.5471
▁refused	-10.5474
▁presumed	-10.5475
▁kept	-10.5476
▁sign	-10.5478
▁redness	-10.5482
▁services	-10.5491
▁40-60'	-10.5505
▁transient	-10.5506
165	-10.5508
▁distinct	-10.5527
▁length	-10.5535
▁house	-10.5541
▁erect	-10.5549
▁stoma	-10.555
rrr	-10.5553
▁1:1	-10.5558
▁rales	-10.5559
▁pedi	-10.5566
▁send	-10.5572
sbp	-10.5584
130	-10.5591
▁lad	-10.5594
▁bb	-10.5595
▁#2"	-10.5596
▁secured	-10.5596
▁torso	-10.5604
▁finger	-10.5609
axial	-10.561
▁encephalopathy	-10.5618
▁endocarditis	-10.5625
▁thyroid	-10.5629
wean	-10.5635
▁explained	-10.5642
/5	-10.5648
▁throat	-10.5651
team	-10.5652
▁egd	-10.5653
▁eating	-10.5655
▁cals	-10.5658
▁feel	-10.5658
▁pcp	-10.5662
▁spec	-10.5663
▁specific	-10.5673
▁aerated	-10.5679
▁reflux	-10.5679
▁differences	-10.568
had	-10.5681
▁higher	-10.5681
cpap	-10.5689
#5	-10.5716
▁former	-10.5723
▁tap	-10.5728
nutrition	-10.5737
▁stress	-10.5738
128	-10.5742
▁swollen	-10.5743
▁hyper	-10.5747
▁anti	-10.5749
▁noteneuro	-10.5749
▁prophylaxis	-10.5762
▁inconsistently	-10.5763
▁cld	-10.5766
▁oblique	-10.5766
▁contto	-10.5774
▁tele	-10.5777
▁qid	-10.5778
▁ssri	-10.5779
psv	-10.5784
▁growing	-10.5787
▁diuresing	-10.5787
▁based	-10.5788
85	-10.5793
▁genitalia	-10.5801
.7.	-10.5804
▁dual	-10.5806
transfer	-10.5813
121	-10.5814
▁30-50'	-10.5816
▁understand	-10.5817
▁meet	-10.5818
"".	-10.5828
check	-10.5843
▁tue	-10.5855
▁continueto	-10.5856
ros	-10.5866
137	-10.5866
161	-10.5874
▁vehicle	-10.5879
heent	-10.5883
▁sq	-10.5887
▁ue	-10.5892
▁ot	-10.5899
▁screws	-10.5907
▁claim	-10.5913
▁entire	-10.5915
▁sub	-10.593
▁spot	-10.5948
▁mdis	-10.5958
▁pacs	-10.596
▁velocity	-10.5965
▁plaque	-10.5977
▁pancreas	-10.5981
na	-10.5984
▁postop	-10.5988
▁de	-10.5993
bowel	-10.6006
▁pp	-10.601
▁gbs	-10.6023
▁21%	-10.6028
▁cerebellar	-10.6028
▁fixation	-10.6028
▁sound	-10.6029
tender	-10.6034
db	-10.6037
en	-10.604
myocardial	-10.6045
▁formation	-10.6046
▁aaa	-10.6047
▁diltiazem	-10.6048
▁80%	-10.605
▁ileostomy	-10.605
▁700	-10.6056
▁rotated	-10.6058
▁98%	-10.6059
▁vigorous	-10.6059
intraparenchymal	-10.6062
▁cca	-10.6065
high	-10.6065
▁accordingly	-10.6078
▁flattening	-10.6079
assess	-10.6085
▁rectum	-10.6087
▁intravenous	-10.6089
▁converted	-10.6092
▁vap	-10.6093
▁transfered	-10.6095
▁auscultated	-10.6095
▁1.0	-10.6098
current	-10.6102
▁leftventricular	-10.6119
par	-10.6119
▁pco	-10.612
132	-10.612
▁sec	-10.6124
▁nutritiono	-10.6132
▁visits	-10.6141
▁ostomy	-10.6145
▁sbo	-10.6152
▁secretion	-10.6153
▁gross	-10.6163
▁qd	-10.6167
▁pmhx	-10.6168
▁preoperative	-10.6175
▁heated	-10.6177
▁saturation	-10.6181
▁ratio	-10.6181
goal	-10.6182
▁spike	-10.619
an	-10.6207
▁summary	-10.621
▁providing	-10.621
▁faster	-10.6211
▁rounded	-10.6216
▁csf	-10.6216
▁obstructive	-10.6223
▁attendingday	-10.6226
▁tm	-10.6226
▁gd	-10.6227
▁indications	-10.6227
▁quite	-10.6229
▁forearm	-10.6232
▁general	-10.6233
▁fsbs	-10.6237
▁plts	-10.6246
▁lap	-10.6248
▁moved	-10.6252
▁>95%.	-10.6257
▁skull	-10.626
▁administer	-10.6265
▁cause	-10.6266
▁complaints	-10.6268
▁progressive	-10.6282
▁kcals	-10.6286
▁chips	-10.6287
▁underwent	-10.629
▁border	-10.6292
▁obscured	-10.6295
suctioned	-10.6297
▁ground	-10.6298
neo	-10.63
con	-10.6303
max	-10.6307
if	-10.6317
nsg	-10.6318
▁3.6	-10.6319
▁requirements	-10.6328
▁procedural	-10.6331
regurgitation	-10.634
▁2.4	-10.6341
▁magnesium	-10.6351
▁displaced	-10.6361
▁uac	-10.6361
▁hepatitis	-10.6368
139	-10.6377
▁170	-10.6383
▁territorial	-10.6386
▁learning	-10.6393
146	-10.6394
▁enhancement	-10.6399
▁calf	-10.6401
▁osteomyelitis	-10.6405
▁extension	-10.6408
▁cipro	-10.6412
shift	-10.6414
▁respirations	-10.6428
▁transfuse	-10.6432
▁stemi	-10.6438
▁notable	-10.644
▁ampi	-10.6445
▁hypoxemia	-10.6449
▁denied	-10.6449
▁unstable	-10.6466
▁exams	-10.6466
▁inversions	-10.647
▁drops	-10.6479
from	-10.6479
▁immediately	-10.6496
▁ace	-10.6496
continued	-10.6496
▁fluoro	-10.65
117	-10.6504
▁dosing	-10.6512
▁obvious	-10.6516
▁critical	-10.6518
▁got	-10.6523
▁lucency	-10.6531
urine	-10.6533
▁pills	-10.6538
135	-10.6539
▁thought	-10.654
▁coming	-10.6541
▁might	-10.6547
▁endo	-10.6549
▁sitter	-10.6554
▁cephalic	-10.6554
▁twice	-10.6555
vent	-10.6556
95	-10.6561
2-4	-10.6565
▁flushed	-10.6566
▁advancement	-10.6567
▁colitis	-10.6568
consolidation	-10.657
▁withdrawn	-10.657
114	-10.6575
▁repletion	-10.6587
▁inferolateral	-10.6589
▁35%	-10.659
▁rotation	-10.659
▁purposeful	-10.6593
▁grayscale	-10.6596
▁exertion	-10.6597
▁exampe	-10.6598
▁lives	-10.6609
▁ep	-10.6616
▁18**]	-10.6639
▁tired	-10.6639
ar	-10.6643
▁ft	-10.6645
▁clr	-10.6646
▁alb	-10.6657
productive	-10.6662
▁observation	-10.6664
ant	-10.6669
▁pip	-10.6682
▁approach	-10.6683
▁wedge	-10.6683
▁dcd	-10.6685
▁cultured	-10.6686
▁colostomy	-10.6696
developmental	-10.6697
▁circ	-10.6701
▁prolongation	-10.6701
▁lvef	-10.6718
▁zofran	-10.6719
▁concerns	-10.672
▁labored	-10.6722
▁oxycodone	-10.6727
141	-10.673
▁passes	-10.6733
rate	-10.6747
▁look	-10.6757
▁sun	-10.6757
▁mva	-10.676
65	-10.6761
npo	-10.6778
▁br	-10.6778
▁grunting	-10.6778
▁chemo	-10.6782
▁bring	-10.6787
▁-59	-10.6789
▁gradient	-10.6793
▁haziness	-10.6802
▁vitamin	-10.6804
▁eat	-10.6814
▁humerus	-10.6816
▁developing	-10.6834
ation	-10.6838
▁parental	-10.6843
▁wgt	-10.6845
▁caring	-10.6845
▁suspicious	-10.686
▁ceftriaxone	-10.6875
▁0400	-10.6877
▁joints	-10.6881
▁diurese	-10.6885
▁plate	-10.6886
119	-10.6899
▁th	-10.6904
▁clearance	-10.691
▁appreciable	-10.6915
▁serum	-10.6924
▁medicate	-10.6928
kilo	-10.6945
▁lipids	-10.6947
▁food	-10.6948
▁great	-10.695
▁transverse	-10.6952
▁respond	-10.6953
▁comminuted	-10.6956
▁spleen	-10.6967
▁ge	-10.697
163	-10.6972
▁crit	-10.6981
▁needle	-10.6986
▁tongue	-10.6999
▁heel	-10.6999
▁thoracotomy	-10.7002
▁lobectomy	-10.7008
cough	-10.7017
▁70-80	-10.7025
▁dstick	-10.7027
gag	-10.7029
▁1.2	-10.7029
▁liq	-10.7037
infarction	-10.7039
▁130'	-10.7043
▁products	-10.7047
▁makes	-10.705
155	-10.7052
▁voltages	-10.7059
▁urinal	-10.706
▁according	-10.7077
▁reposition	-10.7086
20,	-10.7092
▁minimum	-10.7093
▁telephone	-10.7099
started	-10.7099
▁stone	-10.7126
▁manage	-10.7129
▁sluggish	-10.7134
afebrile	-10.7138
▁form	-10.7138
▁faint	-10.714
repeat	-10.7141
▁minute	-10.7142
153	-10.7151
▁nodular	-10.7158
▁combination	-10.7158
operative	-10.716
▁completely	-10.7161
▁responded	-10.7162
creat	-10.7166
appropriate	-10.7169
▁children	-10.7174
▁coags	-10.7182
▁atelectatic	-10.7184
▁apices	-10.7184
▁smaller	-10.7188
▁2.2	-10.7189
met	-10.719
▁coordinated	-10.7192
*	-10.7196
118	-10.7197
133	-10.7211
4,	-10.7226
▁dressings	-10.7238
▁4.5	-10.7249
-130	-10.7249
▁ruq	-10.7249
nsr	-10.7256
▁functioning	-10.7258
▁undetermined	-10.7261
▁fissure	-10.7265
116	-10.7266
▁spent	-10.7267
rd	-10.7267
▁especially	-10.7281
▁direct	-10.7288
▁mets	-10.7289
▁progressed	-10.7304
▁interventions	-10.7305
ur	-10.7316
▁30-40	-10.732
poor	-10.7322
▁become	-10.7322
▁pillow	-10.7325
▁scr	-10.7334
▁bodies	-10.7342
187	-10.7344
tan	-10.7344
169	-10.7344
▁contusion	-10.7346
▁lymph	-10.7348
147	-10.7351
▁vats	-10.7352
▁50%.	-10.7358
perfused	-10.7359
0-1	-10.736
138	-10.7364
▁cvvhd	-10.7369
▁naps	-10.7378
▁perforation	-10.7381
▁radiographic	-10.7382
▁couple	-10.7382
▁issue	-10.7383
▁regime	-10.7389
▁herniation	-10.739
▁black	-10.7391
▁79**]	-10.7392
uo	-10.7399
▁108	-10.7409
▁colectomy	-10.7409
▁bw	-10.741
▁wants	-10.7412
131	-10.7413
143	-10.7414
after	-10.7415
do	-10.7423
inferior	-10.7424
▁sput	-10.7426
▁nodules	-10.7429
152	-10.7438
large	-10.7441
▁colace	-10.7443
▁tear	-10.7455
▁labetolol	-10.747
▁sacral	-10.7477
▁1.4	-10.7482
ment	-10.7482
▁photo	-10.7483
▁ble	-10.7484
▁trans	-10.7492
▁almost	-10.7497
▁resumed	-10.7498
▁scarring	-10.7505
▁noloops	-10.7509
▁dictation	-10.751
▁runs	-10.7513
▁pulmonic	-10.7518
▁conclusion	-10.7523
▁115	-10.7525
▁mca	-10.7527
▁distension	-10.7528
▁record	-10.7529
▁aerosol	-10.7533
▁future	-10.7541
▁asymmetric	-10.7544
▁neonatal	-10.7545
pulmonic	-10.7547
▁tibia	-10.7551
▁formula	-10.7554
▁decubitus	-10.7555
▁450	-10.7561
148	-10.7569
▁noteinfant	-10.7577
▁nacl	-10.7582
▁svt	-10.7595
▁extrem	-10.76
currently	-10.7605
▁fingers	-10.7614
▁5,	-10.7617
▁discussion	-10.7619
▁psych	-10.7621
▁leftward	-10.7632
▁bones	-10.7632
▁overlies	-10.7648
▁nystatin	-10.7649
▁29**]	-10.7651
plans	-10.7654
▁subsequently	-10.766
le	-10.766
▁dementia	-10.7661
▁cardiomyopathy	-10.7675
▁communicate	-10.7675
▁contiguous	-10.7686
▁en	-10.7689
▁foci	-10.769
▁recorded	-10.7702
ive	-10.7712
um	-10.7716
▁leukocytosis	-10.7736
▁collections	-10.7743
physiologic	-10.7748
probable	-10.7753
▁hemodialysis	-10.7754
▁aop	-10.7758
▁intub	-10.7766
▁apgars	-10.7782
▁technical	-10.7785
▁dizziness	-10.779
▁3.0	-10.7791
136	-10.7799
▁hear	-10.7801
▁1900	-10.7802
▁duodenum	-10.782
▁secreations	-10.7826
-110	-10.7835
▁3.7	-10.784
▁foreign	-10.7841
▁98-100%.	-10.7845
ectomy	-10.7849
▁independently	-10.785
-5	-10.7854
▁800	-10.7857
▁ab	-10.7858
change	-10.7859
pyloric	-10.7864
▁injuries	-10.7864
▁expansion	-10.787
▁reduction	-10.7872
▁ua	-10.7872
▁inform	-10.7873
105	-10.7891
▁saline	-10.7891
▁periventricular	-10.7901
▁lethargy	-10.7901
▁yest	-10.7905
abdominal	-10.7912
▁lidocaine	-10.7913
▁particularly	-10.7916
▁80-90	-10.7926
ate	-10.7934
▁hypokinesis	-10.7937
166	-10.7938
▁sphenoid	-10.7939
▁0600	-10.7941
mr	-10.7947
ac	-10.795
▁3.8	-10.7955
▁bronchus	-10.7959
▁closure	-10.7965
feedings	-10.7965
▁lies	-10.7968
▁sys	-10.7969
▁ampicillin	-10.797
▁degrees	-10.7971
▁rad	-10.7972
▁uncomfortable	-10.7974
correlation	-10.7976
▁irregular	-10.7976
▁patency	-10.7982
▁shut	-10.7985
188	-10.7985
102	-10.7994
▁hfov	-10.7998
▁instability	-10.8013
including	-10.8016
ax	-10.8018
▁board	-10.8024
vi	-10.8028
▁correct	-10.8032
▁ems	-10.8044
▁rates	-10.8048
▁41**]	-10.8072
▁reaction	-10.8072
ted	-10.8086
/42	-10.809
ag	-10.8095
▁nursery	-10.8101
▁hemorrhagic	-10.8101
▁13**]	-10.8102
▁107	-10.8109
nc	-10.811
▁rhonchorous	-10.8111
paced	-10.812
procedure	-10.8122
▁preliminary	-10.8127
ced	-10.8133
▁exercise	-10.8133
▁ductal	-10.8141
▁hi	-10.8158
▁sample	-10.8173
+,	-10.8173
▁kangaroo	-10.8174
▁limit	-10.8184
avr	-10.8186
▁trends	-10.8189
▁brbpr	-10.8189
▁carcinoma	-10.8193
▁adv	-10.8196
▁acid	-10.8201
▁complication	-10.8215
▁diabetic	-10.8216
▁97%	-10.8216
▁0800	-10.8223
▁refusing	-10.8226
-70'	-10.8228
▁protected	-10.8228
▁alteration	-10.8228
▁looking	-10.823
▁mult	-10.8237
▁clearly	-10.8237
106	-10.824
▁know	-10.8251
▁waiting	-10.826
▁platelets	-10.8271
ca	-10.8286
▁hard	-10.8288
▁briskly	-10.8297
▁63**]	-10.8299
swaddled	-10.8305
▁diaphoretic	-10.8306
▁70-80'	-10.8317
▁milestones	-10.8321
▁notify	-10.8321
lat	-10.8321
▁cordis	-10.8322
/38	-10.8325
▁drsg	-10.8325
increase	-10.8343
gen	-10.8347
hpi	-10.8349
sedated	-10.8356
▁drug	-10.8364
▁coping	-10.8368
intubated	-10.837
▁[**0-0-**]	-10.8374
▁3.3	-10.8377
▁girl	-10.8384
▁hips	-10.8395
▁73**]	-10.8396
▁intolerant	-10.84
▁stooled	-10.8404
term	-10.8404
▁fontanels	-10.8407
▁increasingly	-10.8407
▁hemoptysis	-10.8416
▁deficits	-10.8423
▁heterogeneous	-10.8423
▁ortho	-10.843
chronic	-10.8432
▁notedol	-10.8435
168	-10.8437
▁complaint	-10.8439
▁pole	-10.8442
skingappropriate	-10.8443
▁3.4	-10.8443
▁tracer	-10.8448
▁answer	-10.8448
▁40%,	-10.8459
▁asa	-10.8481
▁tracking	-10.8483
▁wide	-10.8483
▁fast	-10.8488
▁leaking	-10.8489
129	-10.8491
▁writing	-10.8492
▁evacuation	-10.8495
▁2**])	-10.8503
▁hypoglycemia	-10.8504
▁windows	-10.8508
▁#[**	-10.8508
▁tc	-10.8508
anterior	-10.851
▁100%,	-10.8512
▁ax	-10.8513
▁neoplasm	-10.8522
lg	-10.8526
▁embolism	-10.8528
▁drift	-10.8529
▁evolving	-10.8532
dm	-10.8532
▁kvo	-10.8538
▁signed	-10.854
▁nec	-10.8546
pneumonia	-10.8548
▁unsuccessful	-10.8574
▁humalog	-10.8574
▁descending	-10.8585
▁tragus	-10.8586
▁admin	-10.8587
▁alarms	-10.859
▁cdiff	-10.8593
▁stating	-10.8594
▁dobutamine	-10.8603
▁calories	-10.8604
▁mellitus	-10.8608
▁noteplease	-10.8612
▁ch	-10.8615
▁critically	-10.8621
peg	-10.863
▁2.3	-10.863
▁immediate	-10.8634
▁+2	-10.8641
-50	-10.8643
▁3.2	-10.8644
▁antegrade	-10.8644
▁pressor	-10.8649
neonatologydoing	-10.865
▁helpful	-10.8651
her	-10.8653
189	-10.8656
▁1100	-10.8656
▁maes	-10.8659
▁leave	-10.8667
▁communication	-10.8668
ent	-10.8672
▁suspected	-10.8677
▁healed	-10.8679
▁muscle	-10.8683
te	-10.8684
▁intrahepatic	-10.8685
▁toradol	-10.8689
▁poorly	-10.8693
▁premie	-10.8697
stool	-10.8698
▁prevent	-10.8711
▁considered	-10.874
▁90-100	-10.874
▁understanding	-10.8741
▁coordination	-10.8743
▁reveal	-10.8743
atrovent	-10.8744
▁fontanel	-10.8744
▁inspiratory	-10.875
▁font	-10.8751
159	-10.8754
▁hyperglycemia	-10.8761
female	-10.8764
▁1.3	-10.8768
▁health	-10.8769
▁dng	-10.8773
impression	-10.8781
▁stat	-10.8783
127	-10.8789
pel	-10.879
surgical	-10.8791
▁99%	-10.8792
▁loves	-10.8794
▁sero	-10.8796
▁lightly	-10.8799
▁transported	-10.8799
▁amplitude	-10.8808
related	-10.8809
▁usual	-10.8816
▁canal	-10.8819
▁communicated	-10.883
▁watch	-10.8838
▁formed	-10.8852
▁60-70	-10.886
▁leaflet	-10.8863
aneuro	-10.8863
▁overbreathing	-10.8865
▁100-120	-10.8866
▁troponin	-10.8872
▁hemothorax	-10.8873
▁insp	-10.8876
▁hcp	-10.8877
▁generally	-10.8881
▁vi	-10.8881
▁electrolyte	-10.8884
nonspecific	-10.8891
▁patients	-10.8892
▁immature	-10.8895
bradycardia	-10.8901
▁vanc	-10.8903
▁sating	-10.8905
▁easy	-10.8906
▁flexiseal	-10.8908
▁infants	-10.8908
▁subtle	-10.8925
over	-10.893
▁96%	-10.8936
▁junctional	-10.8939
▁echogenic	-10.8943
▁crying	-10.8946
▁rrt	-10.8949
▁inguinal	-10.8949
▁talk	-10.8956
▁abrasion	-10.896
▁relieved	-10.8961
▁quietly	-10.8962
122	-10.8962
▁eca	-10.8976
▁optimal	-10.8986
▁erythema	-10.8988
▁corrected	-10.8989
17	-10.8993
▁emergent	-10.9007
▁lft	-10.9009
mcq	-10.9012
/70	-10.9013
▁0500	-10.9014
▁radiation	-10.9015
▁grimacing	-10.9016
bedding	-10.9026
▁fecal	-10.9027
focus	-10.903
▁54**]	-10.9035
▁extended	-10.9036
▁40-50	-10.9042
▁nailbed	-10.9043
151	-10.9048
▁anasarca	-10.9049
▁ear	-10.9063
▁repleated	-10.9063
▁way	-10.9064
▁cisterns	-10.9068
▁ssc	-10.9069
162	-10.907
▁cooling	-10.9072
157	-10.9075
▁supp	-10.9077
▁allow	-10.9078
▁weekend	-10.908
▁ruddy	-10.9096
-140	-10.9097
vits	-10.91
107	-10.9101
▁lac	-10.9106
▁detail	-10.9111
▁asymptomatic	-10.9119
▁curve	-10.9119
▁cbd	-10.9119
▁levofloxacin	-10.9122
▁interpreter	-10.9128
ity	-10.9129
▁reintubated	-10.914
▁7.0	-10.9141
/30	-10.9147
▁fatigue	-10.915
167	-10.9151
▁cover	-10.9152
▁months	-10.9154
by	-10.9161
▁ethmoid	-10.9177
▁subsegmental	-10.9179
.#8	-10.9189
▁ent	-10.9194
▁evolution	-10.9202
▁pvd	-10.9208
▁traumatic	-10.9213
ness	-10.9215
▁predominantly	-10.9218
▁afeb	-10.9219
▁>100	-10.9223
▁#4	-10.9225
▁flank	-10.9225
▁values	-10.9233
▁reassess	-10.9245
113	-10.9246
126	-10.9248
▁worker	-10.9248
149	-10.925
asking	-10.9251
▁nospells	-10.9252
▁exchange	-10.9252
▁rca	-10.9259
▁palate	-10.926
▁andstooling	-10.9264
▁sharp	-10.9267
▁numerous	-10.9268
male	-10.9276
▁such	-10.9281
▁20**]	-10.9284
▁deformity	-10.9293
▁document	-10.9294
▁requesting	-10.9295
▁120-140	-10.9327
-80'	-10.9328
▁keeping	-10.9329
ous	-10.9333
lung	-10.9333
▁restrained	-10.9335
▁arouses	-10.9335
▁140'	-10.9339
▁often	-10.9341
▁modest	-10.9348
defined	-10.9351
▁told	-10.9366
▁2.1	-10.9367
focused	-10.9367
▁child	-10.9374
▁thusfar	-10.9382
▁constant	-10.9383
154	-10.9385
dol	-10.9387
▁prop	-10.9388
▁bronchial	-10.9396
▁bruising	-10.9404
▁mixed	-10.9405
▁>95%	-10.9412
inc	-10.9417
-50'	-10.9429
▁cmo	-10.9429
rt	-10.9436
▁moist	-10.9452
/35	-10.9452
▁mannitol	-10.9453
▁trough	-10.9454
appears	-10.9455
▁situation	-10.9468
/45	-10.9478
▁lying	-10.9484
▁supported	-10.9494
▁opposed	-10.9498
186	-10.9504
▁sz	-10.9504
▁multiplanar	-10.9508
murmur	-10.9518
/41	-10.9523
164	-10.9528
csru	-10.9529
▁perc	-10.9532
/43	-10.9533
▁90%	-10.9534
▁nsurg	-10.9535
▁lws	-10.9537
fellow	-10.9538
▁titrating	-10.9541
▁reoriented	-10.9547
▁eager	-10.9549
▁dressed	-10.9553
▁2.6	-10.9554
▁sometimes	-10.9555
ri	-10.9556
▁uses	-10.9558
▁ant	-10.9569
mcgs	-10.9571
▁dilation	-10.9576
▁goals	-10.9581
▁ivh	-10.9581
▁bulb	-10.9582
▁cvvh	-10.9585
▁reportedly	-10.9592
▁550	-10.9593
▁shortly	-10.9599
▁750	-10.9599
▁20-30	-10.9602
04	-10.9603
copd	-10.9604
▁mark	-10.9605
back	-10.9608
▁pass	-10.9609
▁said	-10.9609
▁uncertain	-10.961
lasix	-10.9616
▁inversion	-10.9616
▁perla	-10.9618
134	-10.962
-150	-10.963
4-5	-10.9646
▁inhalers	-10.9647
▁98-100%	-10.9649
scr	-10.965
▁decub	-10.9653
▁widened	-10.9654
▁tears	-10.9661
▁clavicle	-10.9662
▁fundus	-10.9664
▁nose	-10.9667
▁variant	-10.9668
▁insufficiency	-10.9671
▁closed	-10.9671
▁impact	-10.9679
▁crepitus	-10.9681
▁aml	-10.9681
▁drifting	-10.9686
om	-10.969
▁scoliosis	-10.9692
▁2.8	-10.9695
▁3.9	-10.9706
map	-10.9713
▁shallow	-10.9717
123	-10.9719
▁+5	-10.972
▁sibling	-10.9735
▁hugger	-10.9737
diffuse	-10.9741
itis	-10.9743
▁tib	-10.9747
hypertrophy	-10.9755
▁beyond	-10.9755
▁sensation	-10.9761
other	-10.9766
▁questionable	-10.9767
▁visitors	-10.9768
▁surfactant	-10.9774
de	-10.9775
▁**]."	-10.9777
▁palpation	-10.9782
▁diagnosed	-10.9784
▁0.8	-10.9791
▁posteriorly	-10.9802
▁emergency	-10.9812
▁prone	-10.9813
pna	-10.9817
▁rise	-10.9818
▁protein	-10.9818
▁constipation	-10.9831
▁pubic	-10.9832
▁half	-10.9836
▁pcv	-10.9836
▁recd	-10.9839
development	-10.9851
▁activewith	-10.9853
▁bacterial	-10.9854
▁95%.	-10.9855
▁hit	-10.9855
ve	-10.9869
placed	-10.9871
flow	-10.9873
ex	-10.9873
ett	-10.9875
▁oropharyngeal	-10.9877
▁weakly	-10.9885
▁loud	-10.9888
▁spaces	-10.9889
▁meconium	-10.9892
▁??	-10.9893
▁pearl	-10.9895
▁pneumothoraces	-10.9896
▁english	-10.9897
present	-10.9902
exp	-10.9913
▁increases	-10.9927
▁determined	-10.9931
▁gr	-10.9931
▁reorient	-10.9934
▁tried	-10.9936
ion	-10.9936
▁best	-10.9936
lines	-10.9942
▁svg	-10.9943
▁operative	-10.9948
▁prognosis	-10.9951
▁dtr	-10.9955
▁lights	-10.997
ally	-10.997
ine	-10.998
▁anuric	-10.9983
▁dusky	-10.9983
▁replace	-10.9987
▁syncope	-10.9987
▁diffusion	-10.9988
▁0700	-10.9988
▁labetalol	-11
▁scrotum	-11.0001
▁iliac	-11.0013
▁fossa	-11.0014
▁decided	-11.0018
▁cholangitis	-11.0018
▁usually	-11.0019
/44	-11.002
▁esophagectomy	-11.0021
▁slowed	-11.0045
risk	-11.0046
▁cardio	-11.0047
101	-11.005
round	-11.005
▁unless	-11.0051
▁diffusely	-11.0053
▁loc	-11.006
▁colonoscopy	-11.0077
▁breathe	-11.0089
▁intraperitoneal	-11.0092
▁150-170	-11.0095
▁whether	-11.0096
▁injection	-11.0097
▁ointment	-11.0099
▁densities	-11.0099
▁hs	-11.0109
▁pacu	-11.0116
when	-11.0119
▁wounds	-11.0124
/37	-11.0127
▁severely	-11.0135
ln	-11.014
▁cholecystectomy	-11.0143
▁>60.	-11.0146
unable	-11.0149
▁saphenous	-11.0151
▁calms	-11.0157
▁ssi	-11.0158
▁excursion	-11.0161
▁radiopaque	-11.0161
▁treatments	-11.0163
▁sigmoid	-11.0166
ich	-11.0167
▁bbo	-11.0171
▁magnevist	-11.0171
▁leukemia	-11.0176
▁80-90'	-11.0184
▁prep	-11.0184
▁pseudoaneurysm	-11.0185
supraventricular	-11.0187
▁falls	-11.0194
taking	-11.0196
▁excoriated	-11.02
-6	-11.0201
▁toe	-11.0204
▁plugs	-11.0213
▁retracting	-11.0222
▁0900	-11.0228
▁noncontrast	-11.023
/34	-11.0246
156	-11.0248
▁epicardial	-11.0256
▁causing	-11.0258
▁gases	-11.0268
▁secure	-11.027
▁factors	-11.0277
oriented	-11.028
▁>60	-11.0293
▁dis	-11.0296
▁complexes	-11.0297
ab	-11.0299
▁stop	-11.0301
intact	-11.0311
cxr	-11.0312
▁hospitalization	-11.0312
▁height	-11.0315
▁sensitive	-11.0315
trach	-11.0316
109	-11.0317
▁2.7	-11.0318
▁hcts	-11.0323
▁tuesday	-11.0328
▁mra	-11.0331
▁complaining	-11.0333
▁teach	-11.0335
▁trache	-11.0342
▁bolused	-11.035
tion	-11.0351
▁onpacifier	-11.0354
ul	-11.0354
▁#8	-11.0374
▁reconstruction	-11.0384
▁stand	-11.0385
▁fixed	-11.0387
▁stem	-11.0396
▁tremors	-11.0398
▁prosthesis	-11.0399
05	-11.04
103	-11.0406
▁gestational	-11.0406
▁thank	-11.0408
▁0200	-11.0409
ated	-11.041
▁metallic	-11.0413
▁prevertebral	-11.0414
▁lcs	-11.0419
ef	-11.0419
▁alarm	-11.0419
desats	-11.0422
▁recovery	-11.0429
hus	-11.0434
heart	-11.0436
▁ve	-11.0437
act	-11.044
waking	-11.0445
▁112	-11.0462
▁substantial	-11.0464
diminished	-11.0465
▁130-150	-11.0471
slightly	-11.0473
▁hypodensity	-11.0479
▁determine	-11.049
▁submitted	-11.0494
▁nicardipine	-11.0499
some	-11.0501
▁pregnancy	-11.0502
124	-11.0505
▁sulfate	-11.0507
▁alone	-11.0507
▁reassurance	-11.051
▁bedrest	-11.0512
▁environment	-11.0518
▁thanks	-11.0523
el	-11.0525
aveabnormalities	-11.0525
physical	-11.0527
appearing	-11.0527
▁attenuation	-11.0528
▁lavage	-11.0528
▁extreme	-11.0528
▁inner	-11.053
:1.	-11.0533
▁bit	-11.0539
▁changing	-11.0545
▁0.4	-11.0548
▁sang	-11.0549
▁plug	-11.0549
▁equally	-11.0553
▁voids	-11.0553
▁intrathoracic	-11.0558
▁mmv	-11.0558
▁114	-11.0561
▁109	-11.0567
eye	-11.0568
pn	-11.0569
▁tach	-11.0578
▁serosanguinous	-11.058
▁golden	-11.0584
pneuro	-11.0606
involved	-11.0609
▁displacement	-11.0614
awake	-11.0618
▁ablation	-11.0622
▁talking	-11.0624
chocardiographic	-11.0625
▁gait	-11.0628
▁abrasions	-11.0629
500	-11.0629
▁neurology	-11.0629
▁confluent	-11.063
▁allergies	-11.0631
▁30%	-11.0638
▁05	-11.0643
▁trend	-11.0654
▁withdraw	-11.0654
coarse	-11.066
/46	-11.0664
▁auscultation	-11.0665
kcal	-11.0666
ne	-11.0675
▁>30	-11.0679
/24	-11.0682
dvt	-11.0682
like	-11.0685
▁nr	-11.0702
▁2300	-11.0709
▁occlusion	-11.071
neumomediastinum	-11.0711
▁135	-11.0712
▁reach	-11.0713
▁indocin	-11.0719
▁plus	-11.0725
104	-11.0727
▁atrophy	-11.0728
▁andsupport	-11.073
▁chills	-11.0731
▁indicating	-11.0739
versed	-11.0741
▁resolve	-11.0743
▁bottom	-11.0743
borderline	-11.0745
▁capture	-11.0745
▁noteresp	-11.075
▁cvicu	-11.0751
update	-11.0751
▁bid	-11.0751
▁positions	-11.0754
▁prostate	-11.0755
▁bx	-11.0762
▁indwelling	-11.0767
▁snds	-11.0771
▁sized	-11.0781
▁laceration	-11.0792
▁3)	-11.0798
▁issuggested	-11.0799
▁tachypnic	-11.0802
comfortable	-11.0805
▁periodic	-11.0807
#	-11.0816
▁expiratory	-11.0816
▁alternating	-11.082
20/	-11.0826
▁nbn	-11.0826
▁0100	-11.0837
▁stridor	-11.0843
▁10**]	-11.0843
▁ability	-11.0844
▁(3).	-11.0845
et	-11.0845
▁90-110	-11.0854
▁ota	-11.0856
▁lytic	-11.0861
weaned	-11.0868
▁tpa	-11.0879
▁involvement	-11.088
▁successfully	-11.0886
▁seconds	-11.0889
▁raise	-11.0893
cmh	-11.0894
▁coffee	-11.0895
ardiorespiratory	-11.09
▁toward	-11.0904
2200	-11.0904
meds	-11.0905
▁stricture	-11.091
▁2-4	-11.092
▁pitting	-11.0926
feed	-11.0931
dry	-11.0942
▁five	-11.0944
▁moniter	-11.0947
▁arenormal	-11.095
▁intraluminal	-11.096
▁50-60	-11.0964
sleeps	-11.0965
▁asps	-11.0966
ating	-11.0971
▁stents	-11.0975
▁outpatient	-11.0977
▁uneventful	-11.0995
▁incisions	-11.0996
ards	-11.0998
▁flu	-11.1005
▁oncaffeine	-11.1006
▁endoscopy	-11.1006
▁fourth	-11.1011
▁affect	-11.1013
▁97-100%.	-11.1017
▁retraction	-11.1018
ward	-11.1029
▁maturation	-11.103
▁sludge	-11.1033
▁loop	-11.1035
▁zantac	-11.1041
▁lack	-11.1042
▁(-)	-11.1043
▁3.1	-11.1054
▁fragment	-11.1064
ia	-11.1073
▁grimaces	-11.1073
▁woke	-11.1073
fever	-11.1077
▁rsr	-11.1081
▁splenic	-11.109
ence	-11.1095
▁wavechanges	-11.1097
▁indicate	-11.1099
▁effective	-11.1099
▁dampened	-11.11
▁daughters	-11.112
▁ribs	-11.1123
▁pyloric	-11.113
▁appt	-11.1131
np	-11.1137
▁guaiac	-11.1137
▁courses	-11.1142
▁gradually	-11.1169
▁paged	-11.1174
▁distribution	-11.1174
▁malalignment	-11.1176
▁resume	-11.1178
▁cold	-11.1188
progress	-11.1193
▁0.6	-11.1194
▁local	-11.1197
▁cortical	-11.1201
▁maintains	-11.1206
▁tothe	-11.1206
▁occurred	-11.1207
/48	-11.1212
▁dopp	-11.1213
▁humidified	-11.122
▁nare	-11.1231
▁ulcers	-11.1232
▁grandmother	-11.1237
▁fick	-11.1243
▁approved	-11.1248
otherwise	-11.1249
flatus	-11.1255
▁lymphadenopathy	-11.1255
▁interested	-11.1262
▁0.3	-11.1265
/0.4	-11.1267
▁conversation	-11.127
▁sore	-11.1275
▁nostool	-11.1277
▁already	-11.1278
▁caliber	-11.128
ting	-11.13
gavaged	-11.1301
▁zones	-11.1301
▁mobility	-11.1302
▁nosignificant	-11.1304
▁sxing	-11.1306
▁caffiene	-11.1311
breath	-11.1314
▁hyperthermia	-11.1319
▁humeral	-11.1319
▁nonproductive	-11.132
▁noxious	-11.1321
air	-11.1322
med	-11.1323
kcl	-11.1324
premature	-11.1329
heparin	-11.1335
▁till	-11.1336
▁1.1	-11.1339
▁pc	-11.1341
▁2.9	-11.1343
▁observe	-11.1343
▁methadone	-11.1344
▁scalp	-11.1347
▁vomited	-11.1358
sob	-11.1359
▁plavix	-11.1363
▁includes	-11.1364
▁relative	-11.1366
▁desitin	-11.1366
▁retroperitoneal	-11.138
▁pap	-11.1382
▁fonts	-11.1383
▁ganglia	-11.1408
ho	-11.141
/33	-11.1411
red	-11.1417
▁116	-11.1419
=140	-11.1422
endocrine	-11.1422
▁asordered	-11.1424
▁facility	-11.1426
/47	-11.1428
▁thursday	-11.1436
trauma	-11.1438
▁melena	-11.1439
▁stimulated	-11.1448
fuo	-11.145
▁ensure	-11.1452
▁mottled	-11.1454
▁cdb	-11.1457
▁coiling	-11.1459
attending	-11.1461
▁oett	-11.1466
awaiting	-11.1476
still	-11.1482
▁orientation	-11.1491
▁enough	-11.1503
▁murmer	-11.1505
▁rashes	-11.1505
▁lantus	-11.1509
▁struck	-11.1511
▁restlessness	-11.1512
▁kg	-11.1514
▁doe	-11.1515
cad	-11.1519
▁"[**220	-11.152
19	-11.1522
▁4.2	-11.1534
▁niv	-11.1536
▁filled	-11.1543
▁50%,	-11.1545
▁obesity	-11.1551
▁occassional	-11.1557
▁weeping	-11.1563
▁wishes	-11.1565
▁taped	-11.1571
▁42**]	-11.1572
allergies	-11.1577
▁friend	-11.1579
▁regions	-11.1582
▁+6	-11.1584
▁contractions	-11.1584
/0.2	-11.159
▁sex	-11.16
▁falling	-11.16
▁latest	-11.1603
altered	-11.1604
▁10/5	-11.161
▁anus	-11.1617
▁demonstrating	-11.1621
▁unlabored	-11.163
▁pleased	-11.1632
▁examgeneral	-11.1633
▁bl	-11.1634
▁listen	-11.1637
▁bradycardic	-11.1647
▁ma	-11.1649
▁resulting	-11.1654
▁shields	-11.1658
▁whole	-11.1658
▁par	-11.1659
▁correlate	-11.166
▁mdct	-11.1662
▁adlib	-11.1662
▁frothy	-11.1668
6-8	-11.1675
▁ip	-11.168
decreased	-11.1698
▁bal	-11.1701
▁incontinent	-11.1705
▁113	-11.1708
▁fld	-11.171
severe	-11.1714
▁thicknesses	-11.1722
▁laterally	-11.1723
temps	-11.1727
▁4.0	-11.1731
▁pads	-11.1732
▁bpm	-11.1737
job	-11.1745
▁2400	-11.175
▁hydration	-11.1752
▁ecchymotic	-11.1763
▁absence	-11.1763
bottling	-11.1767
▁flush	-11.1769
▁110-130	-11.1777
▁shaft	-11.1788
▁reveals	-11.1789
▁contin	-11.1794
▁110'	-11.1805
▁flexion	-11.1806
edema	-11.1808
▁glargine	-11.1811
▁fetal	-11.1815
▁version	-11.1821
▁25**]	-11.1825
infiltrate	-11.1827
48	-11.1842
▁steady	-11.1844
▁5.5	-11.1845
▁atc	-11.1848
eval	-11.1852
▁dl	-11.1852
▁juice	-11.1854
▁40-70	-11.1858
▁maintenance	-11.1858
▁prednisone	-11.1859
▁friends	-11.1864
▁myeloma	-11.1866
▁beneprotein	-11.187
wbc	-11.1872
▁55**]	-11.1876
▁hiatal	-11.1878
▁sudden	-11.1882
▁retaped	-11.1885
▁garbled	-11.1887
▁pneumatosis	-11.1888
▁desaturations	-11.189
▁recieving	-11.1894
bottle	-11.1895
new	-11.1895
▁gets	-11.1897
▁criteria	-11.1899
sang	-11.1912
▁cw	-11.1913
▁malignant	-11.1915
▁rather	-11.1924
▁nad	-11.1924
▁prongs	-11.193
▁hematuria	-11.193
▁retained	-11.1932
▁seem	-11.1934
▁relevant	-11.1938
tolerated	-11.1942
▁inleads	-11.1943
▁lcws	-11.1945
▁osteopenia	-11.1946
▁proper	-11.1947
▁60-80	-11.1958
▁restriction	-11.1959
▁rightward	-11.1967
-40	-11.1968
(3)	-11.1968
▁assisted	-11.1969
▁eventually	-11.197
▁lisinopril	-11.1974
▁thorax	-11.1983
ch	-11.1986
▁gallstones	-11.1987
▁94%	-11.1991
▁boy	-11.1998
lnp	-11.2001
▁puncture	-11.2007
▁0.7	-11.2009
27	-11.2018
▁retic	-11.2019
af	-11.2022
▁massive	-11.2023
▁step	-11.2025
▁para	-11.203
▁containment	-11.2037
▁behavior	-11.204
▁rub	-11.204
▁putting	-11.2042
▁compensated	-11.2042
▁neutropenia	-11.2048
▁flap	-11.205
▁infected	-11.2051
▁bright	-11.2052
▁answers	-11.2053
▁weaker	-11.2054
initial	-11.2055
▁debridement	-11.2055
▁varices	-11.2056
▁supplemental	-11.2057
▁across	-11.2064
▁mds	-11.2064
▁overdose	-11.2064
▁auto	-11.2069
▁malignancy	-11.2093
24,	-11.2102
▁hat	-11.2102
▁incentive	-11.2106
.8.	-11.2107
40%	-11.2108
▁margin	-11.2108
▁nail	-11.2111
▁infarcts	-11.2113
0.5	-11.2124
▁hydro	-11.2129
▁compromise	-11.2132
rn	-11.2134
▁perfusedabdomen	-11.2136
▁meningitis	-11.2138
tsicu	-11.2139
▁150-160	-11.214
▁hosp	-11.2141
▁analysis	-11.2143
▁anticipate	-11.2147
▁fm	-11.215
tinged	-11.2153
▁18/5	-11.2159
▁tb	-11.2169
▁1230	-11.2175
▁apparently	-11.2184
▁bair	-11.2185
▁dig	-11.2186
▁rvr	-11.2188
▁vigorously	-11.2188
▁phototx	-11.2199
▁grasp	-11.2199
---	-11.22
▁exceeding	-11.22
▁118	-11.2202
▁echogenicity	-11.2203
▁hematocrit	-11.2207
▁im	-11.2211
▁education	-11.2211
state	-11.2213
also	-11.2216
ty	-11.2218
ma	-11.2222
34	-11.2229
/0	-11.223
-90'	-11.2231
hyperthermia	-11.2233
▁hypercarbic	-11.2233
▁+[**	-11.2236
intubation	-11.2236
without	-11.224
▁ri	-11.224
▁reintubation	-11.2242
▁habitus	-11.2251
ivf	-11.2253
▁ooze	-11.2267
▁beta	-11.2269
cl	-11.2271
filled	-11.2271
▁heels	-11.2272
5,	-11.2276
▁sustained	-11.2277
wife	-11.2288
▁pumping	-11.2291
▁attention	-11.2294
▁dluvc	-11.2295
▁lots	-11.2295
▁prepped	-11.2297
▁atherosclerotic	-11.2301
prior	-11.2303
▁100-110	-11.2305
▁suture	-11.2306
insulin	-11.2312
▁neosure	-11.2312
▁cpk	-11.2314
▁accompanied	-11.232
changed	-11.2321
cap	-11.2325
▁micro	-11.2328
▁cystic	-11.2333
▁sig	-11.2334
▁4.4	-11.2339
▁toassess	-11.235
▁vaccine	-11.2356
▁si	-11.2357
▁gadolinium	-11.2357
▁yeast	-11.2362
images	-11.2367
▁percutaneous	-11.2369
systolicfunction	-11.237
irritable	-11.2374
▁"1900-0700	-11.2374
▁3+	-11.2375
▁rested	-11.238
▁angina	-11.238
▁bedpan	-11.2381
▁calling	-11.2385
▁expectorating	-11.2386
▁incr	-11.2387
more	-11.2388
▁60-70'	-11.2392
▁revision	-11.2392
▁grasps	-11.2395
▁breastfed	-11.2399
▁09	-11.2402
▁blue	-11.2403
▁proxy	-11.2405
-30	-11.2409
▁frank	-11.2417
due	-11.2423
retractions	-11.2424
▁redo	-11.2428
fentanyl	-11.243
▁depressions	-11.2431
▁tight	-11.2435
▁insurance	-11.2437
**	-11.2453
both	-11.2454
▁cleansed	-11.2455
keep	-11.2455
▁111	-11.2467
▁wanted	-11.247
▁cleaned	-11.247
▁98%.	-11.2474
brisk	-11.2477
▁levaquin	-11.2477
▁axilla	-11.2481
#6	-11.2488
▁necrotizing	-11.249
▁transcription	-11.2497
▁countdown	-11.2498
brady	-11.2499
▁himself	-11.251
▁uptake	-11.2512
▁76**]	-11.2513
▁80-100	-11.252
▁rigid	-11.2522
▁4.3	-11.2524
▁attack	-11.2525
▁120-130	-11.2528
]	-11.2534
▁4.1	-11.2535
▁vp	-11.2544
▁nodes	-11.2545
▁hepatopetal	-11.2547
▁sux	-11.2548
▁cardiogenic	-11.2549
spoke	-11.2549
▁130-160	-11.2555
/49	-11.2556
▁drink	-11.2559
▁opened	-11.256
weighted	-11.2564
li	-11.2567
ir	-11.2572
▁gauze	-11.2577
▁hemo	-11.2586
▁arrhythmia	-11.2587
oob	-11.2593
sah	-11.2594
▁0300	-11.2595
▁900	-11.2598
gastroesophageal	-11.2599
▁rechecked	-11.2605
▁dsgs	-11.2606
▁inplace	-11.2607
/39	-11.2608
▁osa	-11.2609
▁marrow	-11.2613
▁96-100%.	-11.2624
▁103**]	-11.2624
▁afso	-11.2626
▁measured	-11.2632
▁99-100%.	-11.2634
▁sense	-11.2639
▁dinner	-11.2641
112	-11.2649
▁sclerosis	-11.2656
▁95-100%.	-11.2657
▁crf	-11.2663
▁transport	-11.2666
▁entered	-11.2667
▁reversed	-11.2672
▁broad	-11.2673
head	-11.2673
▁occlusive	-11.2676
▁intercostal	-11.268
▁outlined	-11.2682
▁gen	-11.2682
▁efforts	-11.2693
-160	-11.2693
la	-11.2693
liters	-11.27
▁emboli	-11.2702
▁compare	-11.2706
▁nepro	-11.2714
▁dup	-11.2717
promod	-11.2717
▁expressed	-11.2721
global	-11.2726
▁57**]	-11.2734
▁145	-11.2748
▁midaz	-11.2748
▁intern	-11.2749
▁penetration	-11.275
▁specimen	-11.2757
▁carseat	-11.2759
▁probe	-11.2768
▁six	-11.2768
▁intraoperative	-11.277
.""	-11.2775
▁our	-11.2775
▁digested	-11.2779
stage	-11.2779
▁stayed	-11.2781
▁retention	-11.2784
doing	-11.2786
▁ox	-11.2789
▁multilevel	-11.28
▁drinking	-11.2807
▁means	-11.2811
▁150'	-11.2829
▁says	-11.2837
thick	-11.2838
▁airleak	-11.286
emia	-11.286
▁6.5	-11.2863
▁reformatted	-11.2865
▁droop	-11.2875
▁angles	-11.2876
▁medium	-11.2879
▁bank	-11.2891
▁110-120	-11.2894
neonatologydol	-11.2895
▁neurologically	-11.2903
we	-11.2904
▁resistive	-11.2913
▁differential	-11.2921
▁pneumonectomy	-11.2922
▁giving	-11.2927
▁choking	-11.293
▁rods	-11.2933
▁=.	-11.2934
▁hyponatremia	-11.2937
▁precedex	-11.2946
▁farthis	-11.2949
▁apeparing	-11.2952
newborn	-11.2953
▁adequately	-11.2956
▁acidotic	-11.297
▁pea	-11.2971
▁success	-11.2991
lower	-11.3002
▁neoblue	-11.3003
38	-11.3006
occasional	-11.3008
▁1900-0700#1	-11.3012
▁fontanelles	-11.3027
-20	-11.3029
▁substantially	-11.3033
▁preceding	-11.3034
▁intrapartum	-11.3034
▁nature	-11.3034
hypotension	-11.3035
▁saturations	-11.3036
▁recover	-11.3037
pulses	-11.3039
4-6	-11.3048
pmh	-11.3065
▁88%	-11.3066
▁begun	-11.3067
▁chief	-11.3073
▁melanoma	-11.3081
▁esp	-11.309
cca	-11.3092
▁350	-11.3092
derm	-11.3094
osis	-11.3094
▁ambu	-11.3101
call	-11.3102
▁radius	-11.3113
isolette	-11.3115
ccq	-11.3127
ial	-11.3129
▁frequency	-11.3132
▁cd	-11.3132
(1)	-11.314
▁metatarsal	-11.3141
ischemia	-11.3141
▁csm	-11.3149
▁satting	-11.3157
▁enhancing	-11.316
▁(?	-11.3165
▁ectopic	-11.3168
▁resuscitation	-11.3169
▁list	-11.317
▁40-70'	-11.3175
▁lvot	-11.3181
▁190	-11.3182
▁medicine	-11.3183
▁tubing	-11.3183
▁precordium	-11.3197
▁aspirated	-11.3199
yr	-11.3202
2100	-11.3203
▁limiting	-11.3207
▁svr	-11.321
▁drips	-11.3211
▁raised	-11.3211
▁(+	-11.3216
▁trophic	-11.3222
▁hyperlipidemia	-11.3223
▁enjoys	-11.3225
▁diminshed	-11.3237
▁99.8	-11.3237
did	-11.3239
▁ask	-11.3241
▁apneic	-11.3241
/54	-11.3243
dad	-11.3244
▁additionally	-11.3245
be	-11.325
educate	-11.3252
00	-11.3256
▁fibula	-11.3257
▁1600.	-11.326
have	-11.3263
33	-11.3265
▁anastomosis	-11.3269
▁latch	-11.3269
▁tortuosity	-11.327
▁sunday	-11.327
▁cri	-11.3272
▁actively	-11.3275
▁03	-11.3275
▁steri	-11.3286
▁gerd	-11.3286
▁safe	-11.3286
▁sclerotic	-11.3288
▁incomplete	-11.3295
▁instructed	-11.33
ter	-11.3303
ngt	-11.3306
▁1800.	-11.3314
▁yellowish	-11.3314
stroke	-11.3322
▁symmetrical	-11.3333
infusing	-11.3333
▁50-70	-11.3334
▁bronchitis	-11.3338
▁dysphagia	-11.334
▁diamox	-11.3341
pericardial	-11.3351
spells	-11.3363
mid	-11.3363
▁gentamicin	-11.3367
/52	-11.3373
transient	-11.3375
▁upset	-11.3377
▁seemed	-11.3377
picc	-11.338
▁mucus	-11.3381
▁cranial	-11.3382
▁mgmt	-11.3386
▁managed	-11.3386
▁sedate	-11.3389
spits	-11.3396
▁fibrosis	-11.3401
▁echotexture	-11.3402
12.5	-11.3403
▁fungal	-11.3404
collar	-11.3406
▁referred	-11.3407
▁saw	-11.3408
neonatal	-11.3413
▁advised	-11.342
pmicu	-11.3421
loving	-11.3423
▁bi	-11.3425
denies	-11.3433
▁app	-11.3436
1.5	-11.3439
rehab	-11.3448
less	-11.3449
thus	-11.3459
▁benadryl	-11.346
repolarization	-11.3464
/55	-11.3466
▁suggestion	-11.3466
▁orientated	-11.3469
▁staph	-11.3475
▁mo	-11.348
▁spiked	-11.3485
▁lvh	-11.3486
▁ofbm	-11.3487
ary	-11.3492
mmhg	-11.3492
▁inspiration	-11.3494
▁aldactone	-11.3498
▁packed	-11.3506
▁edge	-11.351
▁clinic	-11.3511
▁estimated	-11.3515
▁refed	-11.3516
▁elective	-11.3517
▁mist	-11.3518
late	-11.352
son	-11.3527
▁language	-11.3529
/23	-11.3534
▁referral	-11.3534
▁deficit	-11.3535
▁andequal	-11.3536
▁various	-11.3549
unit	-11.3555
/56	-11.356
ami	-11.3563
▁taper	-11.3565
medical	-11.3566
▁chemotherapy	-11.3573
▁alcoholic	-11.3575
▁staying	-11.3576
▁variable	-11.358
▁poss	-11.3585
▁membranes	-11.3585
vd	-11.3586
▁0.9	-11.3596
▁covering	-11.3611
▁midazolam	-11.3617
ll	-11.3622
ad	-11.3623
▁ring	-11.3623
▁biventricular	-11.3624
▁cuffed	-11.3625
26.	-11.3632
▁radiant	-11.3636
▁cldy	-11.3637
hyperbili	-11.3638
▁chin	-11.3639
▁digoxin	-11.364
▁141**]	-11.3641
▁cysts	-11.3645
minimalaspirates	-11.3645
31	-11.3646
▁wrap	-11.3646
breathing	-11.3649
▁alk	-11.365
▁icteric	-11.3651
▁witnessed	-11.3657
▁machine	-11.3657
/53	-11.3659
▁screw	-11.3659
▁pku	-11.3661
▁117	-11.3663
(2)	-11.3666
▁crani	-11.3671
▁foul	-11.3677
▁tires	-11.3679
▁ruled	-11.3688
swallow	-11.3691
guiac	-11.3693
▁finished	-11.3696
▁5/7	-11.3699
controlled	-11.3699
▁urosepsis	-11.3703
▁straw	-11.371
ies	-11.3721
pap	-11.3724
/51	-11.3726
▁catheterization	-11.3727
▁notesee	-11.3731
=130	-11.3735
need	-11.3739
hx	-11.3743
▁osteo	-11.3746
/80	-11.375
malignant	-11.3751
▁140-150	-11.3758
▁sternum	-11.3764
▁hyperkalemia	-11.3765
▁cyu	-11.3769
▁nard	-11.377
green	-11.3773
▁ranges	-11.3777
▁expect	-11.3781
▁asses	-11.3782
sdh	-11.3789
pneumoperitoneum	-11.3791
▁incidental	-11.3791
brown	-11.3799
▁npnresp	-11.3802
▁brace	-11.3803
z	-11.3805
▁physiologic	-11.3805
▁expectorate	-11.3813
▁enfamil	-11.3817
▁therapypt	-11.3821
▁variation	-11.3824
existing	-11.3826
▁presumably	-11.3827
▁scretractions	-11.3837
▁bubble	-11.385
▁ate	-11.3853
▁ferinsol	-11.3854
sucks	-11.3864
▁act	-11.3865
▁mortise	-11.3865
▁prenatal	-11.3865
side	-11.3878
▁hem	-11.388
thrombocytopenia	-11.3883
▁cues	-11.3883
▁elevations	-11.3884
/12	-11.3887
▁foramen	-11.3898
▁ppf	-11.3902
▁mainly	-11.3903
▁infused	-11.3903
4-8	-11.3903
▁transiently	-11.3908
▁clavicles	-11.3913
▁interactive	-11.3918
29	-11.392
▁trials	-11.3922
▁bioprosthetic	-11.3928
.#9	-11.393
▁colonic	-11.3931
evaluate	-11.3934
ling	-11.3934
▁esmolol	-11.3936
▁shown	-11.3937
▁scope	-11.3943
▁rupture	-11.3943
▁rtxns	-11.3944
▁draws	-11.3945
▁duodenal	-11.3947
anterolateral	-11.3948
▁nights	-11.3951
▁mattress	-11.3951
▁flushes	-11.3952
▁reaches	-11.3952
ptx	-11.3954
▁vision	-11.3959
▁accessory	-11.3962
available	-11.3962
200	-11.3966
▁fontanelle	-11.3968
▁cefepime	-11.3974
took	-11.3981
▁phoned	-11.3984
▁secs	-11.3987
0-2	-11.3988
▁disoriented	-11.3995
▁metastases	-11.3998
▁lot	-11.3998
▁evd	-11.4
▁xrt	-11.4001
▁delivered	-11.4003
▁flex	-11.401
adline	-11.4019
▁sacrum	-11.4019
▁bps	-11.4021
▁128	-11.4021
-->	-11.4023
cbc	-11.4026
▁cmln	-11.4033
▁20/5	-11.4037
▁epilepticus	-11.4042
▁whitish	-11.4045
▁index	-11.4049
▁arouse	-11.4057
▁97%.	-11.4058
24/	-11.4059
tomorrow	-11.4061
grade	-11.4061
▁keppra	-11.4063
▁wheezy	-11.4065
girth	-11.4072
▁hypernatremia	-11.4075
▁lifts	-11.4085
▁settled	-11.409
▁meropenem	-11.4091
▁disposition	-11.4097
/50'	-11.4106
▁surface	-11.4106
▁neurological	-11.4108
▁workup	-11.4111
51/2	-11.412
▁vaginal	-11.4122
▁stability	-11.4124
▁closer	-11.4125
▁solumedrol	-11.4132
▁necrotic	-11.4133
rsbi	-11.4138
flutter	-11.4157
▁cut	-11.4161
▁transitional	-11.4163
bottled	-11.4163
▁ess	-11.4165
▁presentation	-11.4174
▁mtg	-11.4175
ie	-11.4182
▁solid	-11.4188
▁hyperdynamic	-11.4191
2.4	-11.4191
wound	-11.4194
marked	-11.4203
▁fr	-11.4209
interval	-11.4212
▁window	-11.4214
▁purulent	-11.4226
▁99.6	-11.4233
▁center	-11.4239
▁ulnar	-11.4242
sized	-11.4243
▁expanded	-11.4247
revised	-11.4251
▁cvr	-11.4254
▁measure	-11.4261
▁sensing	-11.4267
▁grimace	-11.4269
▁knows	-11.427
vanco	-11.4274
▁cholelithiasis	-11.4277
ft	-11.429
▁deficiency	-11.4291
▁anteriorly	-11.4292
▁aicd	-11.4295
ian	-11.4298
br	-11.4303
111	-11.4306
▁straight	-11.4309
▁spikes	-11.4311
sm	-11.4312
▁direction	-11.4323
int	-11.4328
▁healthy	-11.4331
start	-11.4336
▁fragments	-11.4337
▁biting	-11.4339
▁let	-11.434
res	-11.4346
his	-11.4348
▁orogastric	-11.4351
▁intracerebral	-11.4352
▁decadron	-11.4358
▁4.6	-11.436
▁11**]	-11.4361
▁guided	-11.4362
▁muscles	-11.4362
▁25-50	-11.437
▁infiltration	-11.437
▁duration	-11.4375
▁dextrose	-11.4377
▁injected	-11.4378
▁bronched	-11.4382
▁levoflox	-11.439
▁97-100%	-11.4392
▁vbg	-11.4396
▁prod	-11.44
site	-11.4401
▁6/7	-11.4402
▁...	-11.4407
aspiration	-11.4407
▁metavision	-11.4408
intestinal	-11.4408
▁quick	-11.4409
▁anticoagulation	-11.4415
▁destruction	-11.4419
▁logroll	-11.4419
▁ventriculostomy	-11.4425
home	-11.4425
▁charted	-11.443
dim	-11.4431
▁awoke	-11.4433
+2=	-11.4437
▁relate	-11.4437
week	-11.4437
during	-11.4438
▁100.1	-11.4441
▁chloride	-11.4449
▁[	-11.445
▁visualization	-11.4454
▁toface	-11.4457
▁1900-07001.	-11.4461
▁vdg	-11.4473
-200	-11.4473
▁glucoses	-11.4482
response	-11.4484
5-6	-11.4487
▁declined	-11.4489
▁dts	-11.4491
▁buttock	-11.4496
23	-11.4498
▁gluconate	-11.4498
▁structure	-11.4501
▁doesn	-11.4506
▁lunch	-11.451
▁132	-11.451
▁plastics	-11.4514
daughter	-11.4518
tonight	-11.453
upper	-11.4531
▁136	-11.4537
170	-11.4549
▁83**]	-11.4551
results	-11.4553
▁abdsoft	-11.4554
▁descended	-11.4555
▁transitioned	-11.4558
▁134	-11.4562
tx	-11.4563
▁4-5	-11.4568
▁processes	-11.4571
▁99-100%	-11.4575
▁spoken	-11.4575
▁pediatrician	-11.4576
0-4	-11.4577
▁100.6	-11.4584
lad	-11.4589
▁pul	-11.459
▁manager	-11.4594
extubated	-11.4595
sedation	-11.4595
▁ambulated	-11.4604
intermittent	-11.4605
▁mentioned	-11.4607
▁agreed	-11.4608
▁understands	-11.4609
▁voidingand	-11.4615
▁reflects	-11.4617
abnormalities	-11.4618
▁labor	-11.4622
37	-11.4623
▁value	-11.4623
▁scrotal	-11.4627
/18	-11.4629
▁clotted	-11.4629
cardio	-11.463
▁empyema	-11.4637
▁fdg	-11.4641
▁lsclear	-11.4644
vss	-11.4649
▁hypothermic	-11.465
▁arthritis	-11.4654
▁scans	-11.4661
.9.	-11.4662
▁deferred	-11.4663
▁remarkable	-11.4667
▁depending	-11.4668
▁5-10	-11.4673
▁class	-11.4677
▁#20	-11.4686
▁trop	-11.4687
▁3/7	-11.4687
volume	-11.4689
▁140-170	-11.469
▁enema	-11.469
▁lightened	-11.4696
▁instructions	-11.4705
>100	-11.4708
▁fifth	-11.4713
▁res	-11.4717
▁flair	-11.4721
▁restricted	-11.4722
/21	-11.4723
▁draped	-11.4725
▁bruises	-11.4725
tr	-11.4741
▁talked	-11.4747
▁sleepswell	-11.4748
ce	-11.4749
▁mmmpchest	-11.4751
▁elongated	-11.4752
▁diuretics	-11.4755
npnote	-11.4755
vented	-11.4757
▁nibp	-11.4769
▁2/7	-11.4775
jaundiced	-11.4775
▁temporary	-11.4778
▁outflow	-11.4779
▁btw	-11.4786
▁96%.	-11.4789
▁technically	-11.4789
▁forcomparison	-11.479
stent	-11.4794
▁4.8	-11.4807
▁mechanically	-11.481
▁4.7	-11.481
▁gel	-11.4811
▁bue	-11.4814
open	-11.4815
▁must	-11.4815
▁160-180	-11.4818
▁mammogram	-11.4823
▁neutropenic	-11.4825
▁prepare	-11.4828
ph	-11.483
vs	-11.4832
▁callus	-11.4834
▁#5	-11.4834
▁ambulation	-11.4839
▁astolerated	-11.4841
▁nectar	-11.4843
▁avoid	-11.4844
▁tape	-11.4846
▁4/7	-11.485
▁ionized	-11.4851
sent	-11.4855
▁1330	-11.4858
▁allergy	-11.4866
▁bowelsounds	-11.4872
▁120-150	-11.4875
▁broken	-11.4876
>60.	-11.4877
em	-11.488
▁ranged	-11.4882
▁lost	-11.4888
lumen	-11.4889
▁obscuration	-11.489
▁splint	-11.4892
▁0700-19001.	-11.4895
sb	-11.4895
▁blister	-11.4897
▁prolapse	-11.4898
▁decompensation	-11.4902
mo	-11.4903
▁81**]	-11.4912
▁cry	-11.4912
▁speaks	-11.4917
passed	-11.492
▁packing	-11.4925
▁wearing	-11.4926
▁130-140	-11.4927
▁pneumocephalus	-11.4929
▁reference	-11.4931
▁defects	-11.4931
▁lovenox	-11.4932
-25	-11.4939
▁switch	-11.494
▁peritoneal	-11.4944
▁fashion	-11.4945
erect	-11.4951
▁stenting	-11.4951
ydropneumothorax	-11.4955
▁receives	-11.4955
echo	-11.496
tc	-11.4966
/58	-11.497
improved	-11.4974
▁phase	-11.4978
ntihypertensives	-11.4978
▁away	-11.4983
▁148	-11.4988
▁hcv	-11.4998
advance	-11.4998
▁1630	-11.4999
▁net	-11.5001
▁rop	-11.5009
ha	-11.5011
▁purposefully	-11.5015
▁bsc	-11.5017
ig	-11.5021
▁wednesday	-11.5027
3.0	-11.5028
/20	-11.5029
▁survanta	-11.5032
atr	-11.5032
▁herself	-11.5033
hypertension	-11.5033
▁nutren	-11.5044
▁bactrim	-11.5045
▁indices	-11.5049
▁contusions	-11.5049
cals	-11.5052
▁murmurabd	-11.5057
▁lsb	-11.5058
total	-11.5059
▁trunk	-11.506
▁interest	-11.5064
uti	-11.507
▁blisters	-11.5073
minutes	-11.5082
▁effacement	-11.5085
/60'	-11.5086
▁returns	-11.5097
▁ecchymosis	-11.5098
▁situ	-11.5099
▁dfddp	-11.5101
vomiting	-11.5102
▁terminate	-11.5106
orders	-11.5106
▁confirmation	-11.5107
diaper	-11.5112
▁75.3	-11.5114
▁>96%.	-11.5118
▁gained	-11.5118
▁periph	-11.5122
▁+2,	-11.5126
▁surfaces	-11.5127
vertebral	-11.5129
▁delta	-11.5129
▁numbness	-11.5129
completed	-11.513
▁irrigated	-11.5133
++	-11.5141
▁ligation	-11.5146
3.5	-11.5155
▁options	-11.5159
▁squeeze	-11.5161
early	-11.5165
▁sons	-11.5167
▁dedicated	-11.517
▁babies	-11.5172
▁138	-11.5175
neon	-11.5179
▁largely	-11.518
▁70-90	-11.5181
▁rod	-11.5183
▁tabs	-11.5189
ative	-11.5189
▁fo	-11.5191
▁1730	-11.5197
▁acyclovir	-11.521
2-16**]	-11.5213
▁ppm	-11.5216
▁fb	-11.5217
6-7	-11.5218
▁titration	-11.5219
▁node	-11.5221
▁ambulate	-11.5224
mvr	-11.5234
▁ovarian	-11.524
▁.25	-11.5241
section	-11.5242
extubation	-11.5245
▁0700-1900#1	-11.5249
▁0.25	-11.5253
▁16,	-11.5253
▁participating	-11.5254
▁handling	-11.5257
▁hilum	-11.526
▁vsd	-11.5261
▁mp	-11.5263
▁chole	-11.5268
▁allneuro	-11.527
/0.3.	-11.527
0-6	-11.527
▁nh	-11.5274
▁explain	-11.5274
▁severity	-11.5276
▁119	-11.528
▁133	-11.528
▁appointment	-11.5282
▁dka	-11.5285
grams	-11.5287
-130'	-11.5288
▁sem	-11.5289
data	-11.5294
▁burst	-11.5294
▁15-20	-11.5302
scale	-11.5313
▁hyperinflated	-11.5314
▁#7	-11.5315
▁spitting	-11.5318
▁22**]	-11.532
▁stairs	-11.5326
▁hypothermia	-11.5326
requiring	-11.5328
▁supply	-11.5335
▁cco	-11.5336
does	-11.5338
via	-11.5339
▁primarily	-11.5339
my	-11.5341
▁fingersticks	-11.5342
▁cxs	-11.5345
▁uncomplicated	-11.5347
0-3	-11.5351
suck	-11.5352
hypoactive	-11.5353
rec	-11.5354
▁projection	-11.5355
▁notepeswaddled	-11.5364
admitted	-11.5364
▁56**]	-11.5367
▁cluster	-11.5369
▁21**]	-11.5374
▁airways	-11.5382
worker	-11.5383
▁160'	-11.5385
▁211**]	-11.5392
▁tch	-11.5392
▁100.8	-11.5402
▁acutely	-11.5403
▁di	-11.5412
▁hifi	-11.5413
▁attached	-11.5417
▁therapist	-11.5417
▁updateneuro	-11.5419
▁lactation	-11.542
0-8	-11.5421
dose	-11.5426
▁awakens	-11.5426
▁angiogram	-11.543
▁quad	-11.5436
▁significance	-11.5438
▁lrg	-11.5439
▁06	-11.5441
▁gentle	-11.5446
▁99.4	-11.5447
▁points	-11.5449
refer	-11.5451
▁reversal	-11.5457
▁returning	-11.5461
ae	-11.5464
▁perhaps	-11.5466
▁fc	-11.5466
▁key	-11.5467
8-12	-11.5467
▁medically	-11.5474
▁saturday	-11.5476
▁tunneled	-11.5476
ide	-11.5477
▁04	-11.5479
▁listed	-11.5483
▁reflecting	-11.549
▁answering	-11.5498
▁144	-11.5499
lv	-11.55
sl	-11.55
lead	-11.55
▁introducer	-11.5502
fe	-11.5508
guided	-11.5517
▁meals	-11.5519
anxiety	-11.552
av	-11.5526
▁rm	-11.5527
▁rpr	-11.553
▁aflutter	-11.5538
▁placment	-11.5543
▁atelectases	-11.5547
▁okay	-11.5548
▁atropine	-11.555
▁condom	-11.5552
mn	-11.5552
/57	-11.5556
▁hypothyroidism	-11.5559
▁improves	-11.556
▁drowsy	-11.5562
▁wwp	-11.5563
▁intensity	-11.5563
▁collapsed	-11.5563
▁moaning	-11.5563
placement	-11.5564
2.5	-11.5566
brings	-11.5576
▁fdgs	-11.5577
▁community	-11.5581
▁willcontinue	-11.5581
mic	-11.5582
▁word	-11.5582
▁breathsounds	-11.5584
▁examawake	-11.5585
street	-11.5589
▁subluxation	-11.5594
ance	-11.56
▁360**]	-11.5601
▁1/7	-11.5604
▁neurosurg	-11.5606
▁spanish	-11.5614
action	-11.5615
▁fluconazole	-11.5616
▁mmm	-11.5617
▁07	-11.5617
▁ineffective	-11.5622
▁sxned	-11.5629
▁99.2	-11.563
▁sml	-11.5631
▁mcq	-11.5633
▁1700.	-11.5639
/27	-11.5639
▁cycle	-11.5645
▁iddm	-11.5652
5)	-11.5653
3.6	-11.5657
▁1530	-11.5659
▁lavaged	-11.566
▁0.2	-11.5673
oursing	-11.5678
▁lesser	-11.5684
▁anatomic	-11.5686
cvp	-11.5692
▁incompletely	-11.5694
called	-11.5695
▁cardioversion	-11.5697
mls	-11.5698
▁metastasis	-11.5704
ned	-11.5713
▁reinforced	-11.5714
2-14**]	-11.5715
▁always	-11.5717
▁301.	-11.5725
▁acting	-11.5726
▁slowing	-11.5729
▁hila	-11.5732
▁entirely	-11.5738
▁atypical	-11.5743
▁breakfast	-11.5743
▁fatty	-11.5744
uprbc	-11.5745
ptt	-11.5754
hepatic	-11.5755
▁heat	-11.5756
0-5	-11.5759
tv	-11.576
▁hospice	-11.576
▁cocci	-11.5763
bilious	-11.5765
▁126	-11.5768
▁92%	-11.5771
▁assists	-11.5772
▁liqs	-11.5774
▁abcess	-11.5786
▁allowed	-11.5786
47	-11.5789
▁2200.	-11.5791
▁react	-11.5795
2-22**]	-11.5799
ning	-11.5799
▁benefit	-11.5799
▁afos	-11.581
/+5	-11.5814
1.0	-11.5818
▁>94%.	-11.5831
▁25%	-11.5832
7.	-11.5834
▁binki	-11.5834
▁1430	-11.5835
▁tfs	-11.5836
▁congenital	-11.5838
▁transvenous	-11.5838
▁77**]	-11.5841
jaundice	-11.5855
amp	-11.5855
▁6**]	-11.5856
▁0600.	-11.5858
▁mechanism	-11.586
▁slurred	-11.5862
▁beneath	-11.5864
▁consistencies	-11.5869
▁wait	-11.587
▁medially	-11.5877
▁complains	-11.5879
▁90-120	-11.588
under	-11.5882
▁why	-11.5882
▁limbs	-11.5889
▁perf	-11.5894
▁2130	-11.5894
▁loosening	-11.5896
2-15**]	-11.5897
▁quadrants	-11.5904
sxn	-11.5905
▁93%	-11.5907
/15	-11.5911
rhythm	-11.5913
▁vocal	-11.5914
▁raises	-11.5916
▁thrush	-11.5919
▁rhythmleft	-11.5928
▁ambulance	-11.593
ue	-11.5932
▁sanguinous	-11.5936
▁initiation	-11.5936
ure	-11.5936
▁senna	-11.5937
▁extrems	-11.5942
▁nearly	-11.5943
encourage	-11.5947
▁natrecor	-11.5953
▁pl	-11.5961
▁137	-11.5963
▁ll	-11.5965
▁load	-11.5968
▁siblings	-11.5968
▁participated	-11.5973
est	-11.5974
▁dozing	-11.5974
propofol	-11.5976
▁laminectomy	-11.598
uc	-11.5985
can	-11.5996
39	-11.5998
▁epigastric	-11.6001
▁gt	-11.6007
▁nephrostomy	-11.6014
-120'	-11.6015
seen	-11.6016
▁lips	-11.6025
▁ppp	-11.6026
enteral	-11.6029
▁solids	-11.6032
▁clavicular	-11.6034
▁132**]	-11.6039
scretractions	-11.604
▁palliative	-11.6044
▁guaic	-11.6045
▁16/5	-11.6046
▁pseudomonas	-11.6049
▁permanent	-11.6052
▁hole	-11.6061
modest	-11.6069
▁annular	-11.6095
▁never	-11.6098
▁rbc	-11.6099
neck	-11.6103
wall	-11.6107
190	-11.6108
receiving	-11.611
phototherapy	-11.6114
▁cardiopulm	-11.6117
▁neosynephrine	-11.6118
▁.4	-11.612
▁kinair	-11.612
▁cmmeds	-11.6121
▁ganz	-11.6122
▁**]"	-11.6126
▁anticipated	-11.613
▁find	-11.6134
▁readmitted	-11.6137
pending	-11.6148
▁7.32	-11.615
▁100.4	-11.6158
▁diameters	-11.6159
ual	-11.6162
▁139	-11.6163
▁suspect	-11.6163
▁124	-11.6163
im	-11.6165
▁description	-11.6165
▁obl	-11.6167
liver	-11.6168
▁142	-11.6175
▁sxd	-11.6184
▁cult	-11.6196
▁spirometer	-11.6197
▁fluoroscopy	-11.6197
▁concentrated	-11.6198
▁101.2	-11.6199
/14	-11.6205
▁sulcus	-11.6206
▁sim	-11.6209
▁wellbetween	-11.622
se	-11.6229
▁40-50'	-11.6235
specificst	-11.6239
▁flexed	-11.6249
▁45**]	-11.6254
▁blbs	-11.6261
asp	-11.6262
sed	-11.6265
pr	-11.6272
0.3	-11.6272
▁forfeeds	-11.6275
▁lge	-11.6276
▁prob	-11.6278
▁gap	-11.628
▁>90	-11.6281
changes	-11.6288
▁vre	-11.6293
▁forms	-11.6299
▁147	-11.63
attempted	-11.6301
▁5.2	-11.6301
▁20%	-11.6304
cga	-11.6306
resolved	-11.6308
▁129	-11.6311
di	-11.6312
▁99.5	-11.6319
▁focused	-11.632
▁wts	-11.6323
hematochezia	-11.6328
▁110-140	-11.6329
prn	-11.6329
lt	-11.633
▁communicating	-11.6336
▁aggitated	-11.6336
▁tablet	-11.6337
▁gout	-11.6344
▁14,	-11.6346
▁pcwp	-11.6347
▁16.	-11.6347
▁whose	-11.6348
▁original	-11.6349
melena	-11.6351
▁skeletal	-11.6354
bf	-11.6355
▁embolization	-11.6355
▁generated	-11.636
▁gone	-11.636
eyes	-11.6362
▁avb	-11.6363
▁criticaid	-11.6366
▁plateau	-11.6367
▁reaching	-11.6368
hep	-11.6368
▁pace	-11.6373
▁cross	-11.6375
code	-11.6376
([**	-11.638
▁finally	-11.638
▁sinusitis	-11.6385
▁triage	-11.6388
ekg	-11.6389
▁uncoordinated	-11.6392
▁peroneal	-11.64
▁splenomegaly	-11.6401
▁limitations	-11.6403
▁candidate	-11.641
▁30-70	-11.6412
▁15/5	-11.6414
▁knob	-11.6415
▁eff	-11.6423
▁settle	-11.6428
▁vague	-11.6429
▁combative	-11.6429
▁diverticulitis	-11.6443
▁regularly	-11.6443
▁stain	-11.6446
▁osteophytes	-11.6448
▁difference	-11.6449
▁120-160	-11.6449
▁measurements	-11.6451
▁diag	-11.6452
▁lpm	-11.6455
▁inflated	-11.6464
tachycardia	-11.6465
▁146	-11.6465
▁atbedside	-11.6469
▁microvascular	-11.6471
▁2100.	-11.6473
▁zyprexa	-11.6477
▁pager	-11.648
ized	-11.6483
▁complained	-11.649
poc	-11.649
▁cast	-11.6492
▁64**]	-11.6493
intolerance	-11.6499
▁dk	-11.6501
fi	-11.6501
▁recurrence	-11.6503
boots	-11.6504
▁sticks	-11.6508
-140'	-11.6509
port	-11.6509
hd	-11.6513
▁oxacillin	-11.6516
deep	-11.6517
maintain	-11.6523
▁soundsactive	-11.6525
▁hungry	-11.6526
51.8	-11.6536
▁raf	-11.654
▁initiate	-11.654
#7	-11.6542
▁143**]	-11.6544
▁aloe	-11.6545
lpm	-11.6545
▁ppi	-11.6546
▁french	-11.655
▁membrane	-11.6552
▁smoking	-11.6552
▁death	-11.6554
▁posturing	-11.6558
▁0400.	-11.6563
agree	-11.6564
▁corneal	-11.6571
▁hl	-11.6572
(3	-11.6575
▁acetabular	-11.6585
done	-11.6586
▁oc	-11.6586
may	-11.6591
▁vertex	-11.6592
which	-11.6598
▁10-20	-11.6601
▁dating	-11.6606
rest	-11.6609
▁suspicion	-11.661
focal	-11.6611
▁flare	-11.6611
▁10-15	-11.6614
nutritional	-11.6618
▁flash	-11.6625
pale	-11.6638
oral	-11.6638
▁ambien	-11.664
▁persistant	-11.6646
that	-11.6647
▁latched	-11.6647
▁directed	-11.6649
▁18,	-11.6651
▁documentation	-11.6653
▁141	-11.6657
ativan	-11.6659
▁partly	-11.6661
▁rectally	-11.6663
▁facet	-11.6663
▁goes	-11.6667
▁cre	-11.667
▁washout	-11.667
▁parameter	-11.667
▁purple	-11.6671
▁verify	-11.6676
▁nkda	-11.6679
▁96-100%	-11.6683
multiple	-11.6683
▁csurg	-11.6685
▁betweencares	-11.669
▁symphysis	-11.669
▁esld	-11.669
▁irregularity	-11.6691
400	-11.6693
▁adjustment	-11.6694
▁core	-11.6695
▁31**]	-11.6697
▁95-100%	-11.6698
▁bringshands	-11.67
▁laryngeal	-11.6703
▁100.3	-11.6707
▁iph	-11.6709
▁1830	-11.6709
▁strict	-11.6712
▁anything	-11.6715
▁dz	-11.6716
▁blocker	-11.6722
▁breastfeed	-11.6725
▁extremites	-11.6728
▁hpi	-11.673
▁bmt	-11.6732
▁[1+]	-11.6733
▁unfolded	-11.6733
▁30-40'	-11.6738
▁sutured	-11.6744
▁143	-11.6744
%,	-11.6745
/59	-11.6746
▁gentleman	-11.6747
▁segments	-11.6749
zosyn	-11.675
▁viral	-11.6753
parentingo	-11.676
▁db	-11.6761
▁mesenteric	-11.6762
lip	-11.6763
▁monitorfor	-11.6766
▁west	-11.6771
▁verbalized	-11.6778
▁99.1	-11.6778
chair	-11.6779
▁hemisphere	-11.678
▁neurosurgery	-11.6785
▁experienced	-11.6788
.#5.	-11.6791
▁pedestrian	-11.6795
obstructive	-11.6797
▁osteophyte	-11.6802
▁toleratingfeeds	-11.6803
▁inferiorly	-11.6804
▁bronchograms	-11.6806
▁tlcl	-11.6812
▁#18	-11.6812
▁100-130	-11.6812
▁cts	-11.6816
▁wrapped	-11.6819
mouth	-11.682
▁smooth	-11.682
▁adenopathy	-11.6824
tic	-11.6832
▁decompression	-11.6838
adequate	-11.6841
▁pin	-11.6849
>60	-11.6851
▁platelet	-11.6855
▁fullness	-11.6855
▁memory	-11.6862
▁urology	-11.6867
▁des	-11.6868
resolving	-11.687
▁risks	-11.6871
▁comment	-11.6872
color	-11.6874
most	-11.6875
▁meningioma	-11.6876
▁20-40	-11.6878
yl	-11.6882
▁96-98%	-11.6882
▁product	-11.6892
frequent	-11.6899
▁intestinal	-11.6905
▁incontinence	-11.6906
▁freely	-11.6913
▁gallstone	-11.6916
▁stronger	-11.6918
▁production	-11.692
▁mcgs	-11.6921
▁08	-11.6923
▁dorsal	-11.6924
ish	-11.6927
▁pd	-11.6927
-65	-11.6936
lopressor	-11.6938
▁steroid	-11.6944
▁nerve	-11.6944
▁1130	-11.6951
car	-11.6957
ect	-11.6957
sis	-11.6958
ck	-11.6958
▁puffs	-11.6961
any	-11.6969
overall	-11.6971
asked	-11.6971
▁supplement	-11.6972
▁127	-11.6979
/100	-11.6981
▁hematemesis	-11.6991
/65	-11.6992
psych	-11.6994
ice	-11.6995
secretions	-11.6997
▁4.9	-11.7003
▁pericholecystic	-11.7008
▁dip	-11.7011
intercostal	-11.7017
▁compartment	-11.7024
▁testing	-11.7025
unchanged	-11.7025
▁blunt	-11.7027
▁thumb	-11.7032
▁ambulating	-11.7036
▁gaseous	-11.7038
▁1900-0700#2	-11.7038
▁surveillance	-11.7038
▁pillows	-11.7041
▁123	-11.7044
position	-11.7046
▁recovered	-11.7047
▁13-25	-11.7047
-170	-11.705
▁gnr	-11.7057
▁12**]	-11.706
independent	-11.7065
▁crushed	-11.7067
▁tonoc	-11.7073
▁rooting	-11.7074
country	-11.7075
▁adrenal	-11.7076
▁happy	-11.7077
▁remote	-11.7077
▁weeksremains	-11.7084
▁pcn	-11.7087
▁hypodensities	-11.7091
▁consideration	-11.7092
77	-11.7099
▁99.3	-11.7106
ug	-11.7115
ob	-11.7118
30-60	-11.7121
▁group	-11.7121
▁withdrawing	-11.7121
▁diaphragms	-11.7124
/62	-11.7129
▁toupdate	-11.7132
tylenol	-11.7141
▁62**]	-11.7143
▁115**]	-11.7143
▁occluded	-11.7144
consistent	-11.7152
precordial	-11.7153
▁nts	-11.7155
cms	-11.716
▁168**]	-11.716
▁ejection	-11.7171
ill	-11.7173
▁mapping	-11.7175
▁**	-11.7177
▁>96%	-11.7183
▁122	-11.7183
ied	-11.7185
▁lcx	-11.7186
fr	-11.7187
led	-11.7189
▁100.7	-11.719
nested	-11.719
▁tree	-11.7191
7-8	-11.7191
ring	-11.7196
ace	-11.7201
▁narcotics	-11.7201
para	-11.7207
▁say	-11.7209
▁normotensive	-11.7215
▁living	-11.7215
▁project	-11.7217
46	-11.7219
▁(>55%).	-11.7221
▁ligament	-11.7225
▁dehydration	-11.723
ium	-11.7232
▁streaky	-11.7235
▁against	-11.7237
▁constantly	-11.7238
7.5	-11.7243
▁instead	-11.7243
▁pharmacy	-11.7245
600	-11.7246
▁#6	-11.725
▁amputation	-11.7255
▁segmental	-11.7259
▁conjunction	-11.726
▁fraction	-11.726
▁noticed	-11.7262
▁smelling	-11.7267
▁thisafternoon	-11.7267
▁10:30	-11.7268
▁arrange	-11.7269
▁5.0	-11.7269
▁pneumoboots	-11.7272
vit	-11.7272
neg	-11.7274
▁induced	-11.7283
▁dop	-11.7286
prolonged	-11.7286
▁sure	-11.7287
▁.40	-11.7288
▁nothing	-11.7291
2.6	-11.7295
▁unequal	-11.7296
ization	-11.7303
▁lido	-11.7303
▁comes	-11.7303
***	-11.7307
▁brb	-11.7307
▁motrin	-11.7312
▁gluc	-11.7314
▁orbits	-11.7315
▁silhouettes	-11.732
▁60%.	-11.7322
▁diaphragmatic	-11.7322
▁1300.	-11.7323
▁defined	-11.7329
▁maroon	-11.733
▁plastic	-11.7334
▁exercises	-11.734
49	-11.7341
▁shaking	-11.7349
prefixe	-11.735
▁90-100'	-11.7351
_	-11.7361
▁98.6	-11.7364
▁indicative	-11.7366
▁intrinsic	-11.7373
▁levoquin	-11.7375
▁discoid	-11.7381
▁catheters	-11.7386
htn	-11.7389
▁aphasia	-11.7391
▁37**]	-11.7392
branchblock	-11.7397
▁onto	-11.7398
rem	-11.7399
secs	-11.74
▁outputs	-11.7402
▁95-98%	-11.7404
noc	-11.7406
▁tegaderm	-11.7407
▁5.3	-11.7407
▁66-	-11.741
/22	-11.7415
cannot	-11.7421
▁neutral	-11.7428
▁abdbenign	-11.7431
using	-11.7433
40-60	-11.7436
▁walk	-11.7442
dictated	-11.7444
▁compressive	-11.7452
▁78-	-11.7453
▁embolus	-11.7457
▁250**]	-11.746
▁convexity	-11.7462
▁12,	-11.7468
tach	-11.7471
▁folds	-11.7474
ble	-11.7475
▁175	-11.7478
▁11:30	-11.7484
fu	-11.7487
▁agap	-11.749
▁unusual	-11.7492
▁20/6	-11.7492
abnormal	-11.7497
▁peaked	-11.7502
▁sxning	-11.7503
▁nn	-11.7503
▁mmhg	-11.7507
patent	-11.7507
▁101.4	-11.751
▁38**]	-11.7512
▁5.4	-11.7514
teens	-11.7514
▁80-	-11.7515
▁>97%.	-11.7516
preterm	-11.7516
▁preparation	-11.7518
▁cvvhdf	-11.752
▁widespread	-11.7524
difficult	-11.7525
ful	-11.7527
▁wanting	-11.7529
▁overriding	-11.753
▁mini	-11.753
1-3	-11.7531
▁131	-11.7532
▁mci	-11.7536
▁real	-11.7538
▁chg	-11.7538
3.2	-11.7541
>>	-11.7541
▁crowding	-11.7544
▁screens	-11.7545
▁68-	-11.7546
held	-11.755
▁girths	-11.7552
arterial	-11.7552
▁dic	-11.7553
▁engorged	-11.7555
technical	-11.7571
impaired	-11.7573
▁70-	-11.7574
next	-11.7581
▁caloric	-11.7588
▁anddevelopment	-11.7588
▁50-60'	-11.7595
▁greenish	-11.7596
▁angulation	-11.7596
clinician	-11.7599
drifts	-11.7599
▁morphology	-11.7601
▁spokesperson	-11.7601
▁picture	-11.7604
▁pboots	-11.7605
▁probalance	-11.7607
▁ports	-11.7613
▁gradual	-11.7614
piv	-11.7618
-17	-11.7626
▁1030	-11.7627
gavage	-11.7631
▁ctab	-11.7637
▁orbital	-11.7638
ious	-11.7646
loc	-11.7647
▁160-170	-11.7655
-19	-11.7655
▁smoker	-11.7657
▁incidence	-11.7658
pacifier	-11.766
▁nephrectomy	-11.7664
▁octreotide	-11.7667
pos	-11.7668
▁60-	-11.7668
▁distance	-11.7669
pacing	-11.7669
▁tenacious	-11.7678
▁npcpap	-11.7679
▁7.34	-11.7681
▁respstatus	-11.7685
long	-11.7685
▁adverse	-11.7685
▁1400.	-11.7688
>90	-11.7689
bw	-11.7692
▁hemangioma	-11.7692
▁break	-11.7694
breast	-11.7695
▁om	-11.7705
▁removing	-11.7708
▁difficulties	-11.7709
▁inflammatory	-11.7711
▁width	-11.7712
▁pack	-11.7713
▁features	-11.7715
▁reorientation	-11.7718
▁mucomyst	-11.772
▁decortication	-11.7724
temperature	-11.773
each	-11.7731
lar	-11.7732
50%	-11.7732
▁bringing	-11.7741
-27	-11.7745
▁pouch	-11.7751
▁alertand	-11.7752
▁infrahilar	-11.7758
0**]	-11.776
ist	-11.7767
▁recieve	-11.7771
▁cns	-11.7771
▁tues	-11.7774
▁obscures	-11.7774
▁crisis	-11.7774
▁mgs	-11.7774
▁cxray	-11.7775
▁bigeminy	-11.7778
flagyl	-11.7778
bone	-11.7781
significant	-11.7783
▁6.0	-11.7786
▁lscta	-11.7793
▁bibasal	-11.7797
▁cefazolin	-11.7798
▁worrisome	-11.78
▁twins	-11.7802
▁checking	-11.7806
▁exambenign	-11.7811
▁94%.	-11.7812
▁nor	-11.7815
▁100-140	-11.782
▁_____	-11.7822
▁137**]	-11.7823
▁somnolent	-11.7829
▁ventral	-11.7831
cta	-11.7832
▁cor	-11.7836
▁30-70'	-11.7837
17.6	-11.7839
▁overloaded	-11.7841
▁5.6	-11.7844
▁sac	-11.7845
▁parentingo	-11.7847
▁specifically	-11.7848
benign	-11.785
▁69-	-11.7856
aspirates	-11.7857
▁cat	-11.7863
▁perforated	-11.7864
▁considering	-11.7865
4.8	-11.787
▁tempstable	-11.7874
ua	-11.7884
9-26**]	-11.7891
▁pox	-11.7909
▁gentamycin	-11.7915
contact	-11.7919
-40%	-11.7922
▁bruit	-11.7923
▁department	-11.7928
metabolic	-11.7928
▁se	-11.7928
▁50-70'	-11.7933
levo	-11.7934
resting	-11.7936
valve	-11.7936
▁functional	-11.794
53	-11.7944
▁99.7	-11.7944
▁photorx	-11.7948
▁extend	-11.7948
bed	-11.7952
▁ray	-11.7955
41	-11.7957
mservice	-11.7957
self	-11.7961
(+	-11.7963
mi	-11.7968
▁dulcolax	-11.7969
▁lis	-11.797
▁tremens	-11.7976
▁osteoarthritis	-11.7976
callplease	-11.7978
▁44**]	-11.7978
▁warming	-11.7979
▁thoracolumbar	-11.7982
▁phenylephrine	-11.7989
▁allevyn	-11.7992
▁lingula	-11.7994
▁band	-11.7996
▁decline	-11.8
▁obscuring	-11.8003
▁5.1	-11.8004
▁fu	-11.8009
▁prosthetic	-11.8014
-?	-11.8018
/500	-11.8019
▁waterseal	-11.802
▁aroused	-11.802
▁holds	-11.8022
▁118**]	-11.8025
presently	-11.8029
▁knees	-11.8042
/16	-11.8042
▁vesta	-11.8044
▁vite	-11.8048
cbg	-11.8051
▁diaphoresis	-11.8052
tmax	-11.8054
▁tactile	-11.8064
/64	-11.8065
▁verified	-11.8079
▁orient	-11.8079
▁tco	-11.808
▁gland	-11.8084
hemorrhage	-11.8085
30-50	-11.8089
ym	-11.809
me	-11.8101
▁flaring	-11.8103
bun	-11.8106
▁bka	-11.8108
▁leakage	-11.811
▁0430	-11.8114
▁50-100	-11.812
▁64-	-11.8121
▁contains	-11.8124
▁supplements	-11.8127
▁gfr	-11.8127
sucking	-11.8128
▁rlq	-11.8128
▁things	-11.8129
▁7.41	-11.8132
▁aggitation	-11.8133
▁shovel	-11.8133
▁distant	-11.8139
▁stiff	-11.8142
4-29**]	-11.8144
dy	-11.8147
▁encouraging	-11.8151
▁trialed	-11.8153
following	-11.8157
▁shifted	-11.8158
together	-11.8162
80.8	-11.8163
▁appliance	-11.8169
▁picking	-11.8169
▁aid	-11.8179
ign	-11.8181
▁pfo	-11.8183
▁10:00	-11.8187
▁tommorrow	-11.8192
mb	-11.8198
encephalomalacia	-11.8199
aresp	-11.82
▁andeducate	-11.82
sputum	-11.8201
▁rigors	-11.8203
▁potentially	-11.8203
▁breakthrough	-11.8205
▁corneals	-11.8208
▁motorcycle	-11.821
▁glu	-11.8211
▁behind	-11.8216
▁valveleaflets	-11.8216
▁bursts	-11.8226
▁difficile	-11.8232
▁2230	-11.8232
▁+3	-11.8235
lit	-11.8235
▁plugging	-11.8238
▁those	-11.8238
-180	-11.8239
▁conventional	-11.8243
▁stab	-11.8244
▁notegen	-11.8251
▁lotion	-11.8255
base	-11.8258
lap	-11.8259
▁compliance	-11.8263
▁continuously	-11.8267
▁pps	-11.8267
?""	-11.8269
▁98.4	-11.8271
▁glass	-11.8271
▁62-	-11.8272
▁intubate	-11.8273
▁reporting	-11.8274
▁************	-11.8277
▁transfusions	-11.8281
▁subacute	-11.8288
▁packs	-11.8292
▁pertinent	-11.8293
.#4-	-11.8295
▁170'	-11.8296
▁mvp	-11.8298
subjective	-11.8301
-35	-11.8302
▁discontinue	-11.8302
▁obtaining	-11.8307
▁minimize	-11.8308
▁forward	-11.8309
▁lie	-11.8309
▁cabgx	-11.8316
▁0530	-11.832
▁muir	-11.8322
afsf	-11.8324
▁qt	-11.8325
▁hbsag	-11.833
▁initally	-11.8331
▁experiencing	-11.8338
anteroseptal	-11.8341
drug	-11.8341
▁russian	-11.8342
▁azithromycin	-11.8342
▁sofar	-11.8343
npnneuro	-11.8344
desat	-11.8345
▁facilitate	-11.8351
▁1200.	-11.8352
hypertensive	-11.8357
effect	-11.8357
7.4	-11.8361
▁gpc	-11.8362
recent	-11.8362
▁61-	-11.8364
hypo	-11.8366
▁factor	-11.8368
company	-11.8373
▁maximum	-11.8374
▁updateplease	-11.8374
▁walking	-11.8374
=20	-11.8377
seizure	-11.838
▁1%	-11.839
=10	-11.8392
tamponade	-11.8392
▁arranged	-11.8393
gr	-11.8397
arm	-11.8397
▁territory	-11.8399
▁maint	-11.8403
▁60-80'	-11.8404
▁extrahepatic	-11.8406
▁optimize	-11.8407
▁excited	-11.8408
respir	-11.841
▁dist	-11.8413
▁effectively	-11.8414
yesterday	-11.8414
▁native	-11.8415
▁ect	-11.8416
▁9:30	-11.8417
▁95**]	-11.842
▁sequential	-11.842
▁splenectomy	-11.8421
bilat	-11.8422
▁303**]	-11.8426
law	-11.8433
▁peripherally	-11.8436
verbal	-11.8436
▁57-	-11.8445
ogt	-11.8447
case	-11.8449
▁metal	-11.845
7,	-11.8456
▁bands	-11.8458
▁discrete	-11.8461
"",	-11.8462
▁scar	-11.8463
▁necrosis	-11.8472
▁irrigation	-11.8473
▁aspirin	-11.8474
cooperative	-11.8478
oma	-11.8495
▁hyalin	-11.8497
▁99%.	-11.8498
▁0-	-11.8498
▁capillary	-11.85
▁decr	-11.8501
settles	-11.8503
▁8.5	-11.8509
mt	-11.8539
▁plain	-11.8542
ry	-11.8543
▁suicide	-11.8543
▁accurate	-11.8545
▁resolves	-11.8547
▁reevaluate	-11.8549
▁npnneuro	-11.8549
▁reconstructions	-11.8554
▁149	-11.8554
area	-11.856
▁examine	-11.8562
▁valvular	-11.8563
demand	-11.8565
birth	-11.8568
mean	-11.8568
▁extravasation	-11.8569
4.1	-11.857
58	-11.8571
700	-11.8576
then	-11.8576
/63	-11.8579
apnea	-11.8579
▁77-	-11.8582
▁nas	-11.8582
100%	-11.8583
ut	-11.8589
9-17**]	-11.8589
▁pedicle	-11.8592
▁supervision	-11.8596
▁morbid	-11.8597
▁refuses	-11.86
▁dynamic	-11.8604
▁pleuritic	-11.8609
▁expectorated	-11.8611
=100	-11.8612
▁blankets	-11.8613
-29	-11.8614
▁nasally	-11.8614
▁52**]	-11.8619
▁12:30	-11.8622
▁hypercarbia	-11.8624
▁avail	-11.8626
moving	-11.8628
▁te	-11.863
▁84-	-11.863
further	-11.8637
▁mainstem	-11.8638
▁residue	-11.8644
▁clearand	-11.8646
▁oil	-11.8646
▁nmed	-11.8653
▁craniectomy	-11.8655
▁broviac	-11.8657
▁hematomas	-11.8659
-36	-11.8661
▁glenohumeral	-11.8672
/66	-11.8673
▁notably	-11.8674
▁gtube	-11.8678
▁looked	-11.8679
▁application	-11.868
▁inflammation	-11.868
▁feno	-11.8689
▁biapical	-11.869
▁thrive	-11.869
▁grandparents	-11.8692
▁erythromycin	-11.8698
▁72-	-11.8701
▁examinfant	-11.8706
▁91%	-11.8706
▁11:00	-11.8708
▁383**]	-11.8708
▁yell	-11.871
-100'	-11.8712
▁ketoacidosis	-11.8713
▁enteric	-11.8714
▁requests	-11.8716
79	-11.8721
▁mgso	-11.8723
▁oropharynx	-11.8724
▁faxed	-11.8725
▁influenza	-11.873
▁benefits	-11.873
▁53-	-11.8733
-160'	-11.874
▁79-	-11.874
▁phenobarb	-11.8743
-22	-11.8745
▁strips	-11.8746
57	-11.8748
▁pharyngeal	-11.8751
▁withdrawl	-11.8752
▁tolerable	-11.8754
▁sa	-11.8755
▁rml	-11.8759
subcostal	-11.8762
▁extub	-11.8767
/61	-11.8769
▁pot	-11.8776
▁4-6	-11.878
-150'	-11.878
▁leaving	-11.8783
▁8:30	-11.8785
regular	-11.8788
▁121	-11.8788
▁99.9	-11.8791
▁>55%).	-11.8791
▁hallucinations	-11.8792
tri	-11.8795
▁subfalcine	-11.88
▁sucrose	-11.8801
▁nimodipine	-11.8803
▁worked	-11.8803
▁lightheadedness	-11.8806
▁causes	-11.8807
▁67-	-11.8809
▁oliguric	-11.8811
medqui	-11.8812
▁radiating	-11.8813
2-5	-11.8814
ep	-11.8821
▁originally	-11.8821
negative	-11.8822
follows	-11.8825
▁.50	-11.8828
▁anoxic	-11.883
▁servoisolette	-11.8832
▁pvl	-11.8834
qrs	-11.884
▁circumcision	-11.8844
▁weighted	-11.8847
-28	-11.8849
▁aaox	-11.8849
▁75-	-11.8852
▁hot	-11.8852
elevated	-11.8853
▁101.5	-11.8853
▁plaques	-11.8854
▁exception	-11.8855
▁opacifications	-11.8855
▁hypertonic	-11.8856
▁apaced	-11.8857
▁akinetic	-11.8857
reactive	-11.886
bi	-11.8862
▁hemi	-11.8866
▁7.30	-11.8866
tape	-11.887
▁reformations	-11.8871
8-9**]	-11.8872
▁mobilize	-11.8876
44	-11.8879
▁midnoc	-11.8881
▁tiring	-11.8887
▁cortex	-11.8888
▁dried	-11.8894
▁verbalizing	-11.8895
▁89%	-11.8895
▁miconazole	-11.8895
▁0930	-11.89
▁caffine	-11.89
▁intramedullary	-11.89
▁power	-11.89
▁wish	-11.8902
bsx	-11.8904
pressure	-11.8907
▁localizes	-11.8908
▁jr	-11.8908
▁bear	-11.8911
▁table	-11.8915
▁ckd	-11.8917
▁split	-11.8918
1.8	-11.8923
99	-11.8924
▁sick	-11.8924
▁widely	-11.8928
/68	-11.8929
▁82-	-11.893
growing	-11.893
nasal	-11.8935
▁progressively	-11.8935
▁opencrib	-11.8937
▁65-	-11.8937
▁penis	-11.8938
▁reached	-11.894
▁carepatient	-11.894
▁subcortical	-11.8941
-24	-11.8943
▁think	-11.8943
▁gcs	-11.895
pleural	-11.8954
inr	-11.8956
▁sensed	-11.8959
eobronchomalacia	-11.8959
▁98.9	-11.8959
▁.3	-11.896
generalized	-11.8967
-23	-11.8968
▁passive	-11.8969
strong	-11.8972
aware	-11.8972
▁distally	-11.8975
▁desating	-11.8977
▁lij	-11.8979
8-6**]	-11.8986
▁pylorus	-11.8986
▁phalanx	-11.8989
▁100.2	-11.8991
59	-11.8993
▁wiggle	-11.8997
▁bagged	-11.9009
▁0700-1500	-11.9013
slight	-11.9016
bld	-11.9016
▁fibular	-11.902
atelectasis	-11.902
-55	-11.9021
man	-11.9022
8-11**]	-11.9025
▁waveprogression	-11.9026
hand	-11.9029
gram	-11.9031
▁amb	-11.9035
▁4:30	-11.9037
▁ceftaz	-11.9043
▁0500.	-11.9043
ge	-11.905
▁55-	-11.9053
▁ipf	-11.9057
▁forgetful	-11.9059
contin	-11.906
▁weeksin	-11.9061
▁ducts	-11.9062
▁ugib	-11.9062
▁nadheent	-11.9067
▁duvc	-11.9068
▁33**]	-11.9071
▁101.1	-11.9074
tone	-11.9077
43	-11.9079
▁rapidly	-11.9081
▁lungsounds	-11.9082
7-31**]	-11.9083
=80	-11.9083
▁visualize	-11.9085
▁droplet	-11.9087
88	-11.909
▁antrum	-11.9091
▁52-	-11.9097
▁58-	-11.9098
▁quinton	-11.91
-32	-11.91
1.6	-11.9101
▁101.3	-11.9102
▁7.4	-11.9104
▁hco	-11.9104
note	-11.9105
3-10**]	-11.9106
▁shorter	-11.9107
9-13**]	-11.9107
▁0700-1900#2	-11.9108
▁hopes	-11.9111
discussed	-11.9112
▁comp	-11.9113
▁contents	-11.9115
ten	-11.9118
▁largest	-11.912
▁34**]	-11.912
▁don	-11.9121
▁brownish	-11.9124
▁susceptibility	-11.9127
.#3-	-11.913
dc	-11.9134
▁2:1	-11.9142
▁155	-11.9146
▁mssa	-11.9147
▁pick	-11.9148
▁stabilized	-11.9148
▁attend	-11.9149
▁sacroiliac	-11.9157
▁perianal	-11.9158
▁cords	-11.9159
▁thurs	-11.916
▁swing	-11.9162
▁inverted	-11.9162
56	-11.9168
▁background	-11.917
growth	-11.9172
▁crt	-11.9174
72	-11.9174
▁achieved	-11.9176
▁bacitracin	-11.9178
▁rejection	-11.9179
▁70-90'	-11.9181
▁hypoechoic	-11.9181
▁12:00	-11.9189
▁persistently	-11.9197
▁67**]	-11.9197
wakes	-11.9204
sticks	-11.9204
▁downward	-11.9204
▁tracks	-11.9207
▁extraaxial	-11.9208
suctioning	-11.921
▁spectrum	-11.9214
ess	-11.9221
▁effects	-11.9223
demineralization	-11.9224
▁overnite	-11.9224
▁clonidine	-11.9228
ular	-11.9231
▁0.1	-11.9231
▁amps	-11.9234
8-24**]	-11.9235
▁5.8	-11.9235
▁progressing	-11.9238
▁supra	-11.924
▁ending	-11.9241
-18	-11.9245
▁76-	-11.9246
▁tension	-11.9246
▁7.29	-11.9248
▁pneumonitis	-11.9249
▁2300-0700	-11.9251
#:	-11.9253
▁remians	-11.9253
fer	-11.9253
▁100.5	-11.9256
▁triplet	-11.9256
▁meropenum	-11.9259
-88	-11.926
▁bathroom	-11.9267
▁opposedchest	-11.9268
▁calorie	-11.927
▁shield	-11.9271
▁vpaced	-11.9273
▁85-	-11.9283
▁74-	-11.9286
▁reassured	-11.9287
bronch	-11.9287
▁live	-11.9288
▁cks	-11.9289
parent	-11.9289
▁0000	-11.9295
▁26,	-11.9299
▁incubator	-11.9303
▁tab	-11.9305
▁repogle	-11.9308
▁str	-11.9311
▁aside	-11.9317
▁hope	-11.932
6-10**]	-11.9327
▁wear	-11.9327
▁101.6	-11.9329
▁467**]	-11.9337
▁heavy	-11.9338
▁unsteady	-11.9341
▁lima	-11.9343
breastfeeding	-11.9345
▁extr	-11.9346
▁145**]	-11.9346
▁consistantly	-11.9347
▁clustered	-11.935
▁yelling	-11.935
▁exposure	-11.935
▁narcan	-11.9353
▁180'	-11.9354
▁breastmilk	-11.9356
▁achieve	-11.9359
▁acetabulum	-11.9359
▁perinephric	-11.9359
▁unlikely	-11.9365
▁>94%	-11.9365
▁eagerly	-11.9366
▁lactic	-11.937
▁drive	-11.937
▁linezolid	-11.9375
psychosocial	-11.9378
▁156**]	-11.9386
▁backside	-11.9386
central	-11.9389
▁bo	-11.939
▁girlfriend	-11.9395
8-23**]	-11.9396
▁malpositioned	-11.9396
▁suppository	-11.9399
▁tannish	-11.9402
▁capsule	-11.9402
▁bump	-11.9413
-40'	-11.9413
▁exploratory	-11.9415
▁spiking	-11.9415
▁circulation	-11.9415
mental	-11.9418
▁5.7	-11.942
▁>150	-11.9421
▁spirits	-11.9421
▁529**]	-11.9421
4.0	-11.9421
▁play	-11.9428
-75	-11.9428
▁score	-11.9431
3.7	-11.9433
electrolyte	-11.9438
▁pocket	-11.9438
▁swallows	-11.944
▁tonite	-11.944
97	-11.9441
pelvis	-11.9444
▁mtr	-11.9445
▁mbp	-11.9447
▁0700-	-11.9447
▁antibody	-11.9451
▁immunizations	-11.9453
▁rarely	-11.9462
▁paucity	-11.9464
/90	-11.9467
▁5:30	-11.947
ital	-11.9471
▁pci	-11.9477
▁heights	-11.9478
▁climb	-11.948
▁quads	-11.9484
▁220	-11.9487
▁chb	-11.9487
bilirubin	-11.9488
▁fsbg	-11.949
▁withmild	-11.9491
▁agreement	-11.9491
▁occassionally	-11.9493
mildly	-11.9496
▁clinda	-11.9498
▁adaptic	-11.9502
▁excessive	-11.9502
▁37.5	-11.9505
ostomy	-11.9514
▁input	-11.9515
▁71-	-11.9516
attempt	-11.9521
▁rightbundle	-11.9521
▁majority	-11.9522
8-25**]	-11.9526
▁attentive	-11.9528
300	-11.9532
▁abdomin	-11.9536
▁0800.	-11.954
▁fam	-11.9541
▁22/6	-11.9545
▁retrac	-11.9545
▁rythym	-11.9546
▁jaw	-11.9553
▁14**]:	-11.9559
nacl	-11.9562
-98	-11.9565
bc	-11.9566
.#10	-11.9568
▁account	-11.9569
▁54-	-11.9569
▁paco	-11.957
▁edges	-11.957
ht	-11.9574
/70'	-11.9576
▁"1.	-11.9578
.#5-	-11.9582
▁reformats	-11.9584
trace	-11.9585
que	-11.9588
▁drugs	-11.9588
increasing	-11.9589
▁flovent	-11.9589
(+)	-11.959
▁22,	-11.959
▁bradycardias	-11.959
▁utilize	-11.959
femoral	-11.959
▁andupdate	-11.9591
▁watery	-11.9593
▁83-	-11.9595
▁clearer	-11.9595
▁jejunum	-11.9596
▁113**]	-11.9597
▁59-	-11.9598
▁fencurrent	-11.9598
▁sump	-11.9603
▁placing	-11.9604
septal	-11.9604
▁exact	-11.9605
/67	-11.9606
add	-11.9606
7-14**]	-11.9607
▁maze	-11.9608
▁big	-11.9608
▁toencourage	-11.9608
▁eip	-11.9608
▁lasting	-11.9609
3.9	-11.9612
▁refractory	-11.9615
▁undergone	-11.9616
▁101.8	-11.9617
glass	-11.9617
▁2330	-11.9618
▁roxicet	-11.9622
-45	-11.9622
eal	-11.9628
▁saturated	-11.9628
▁vue	-11.963
▁inflow	-11.9631
▁hoh	-11.9633
agitation	-11.9634
.#4:	-11.9634
pma	-11.9638
26/	-11.9642
▁malaise	-11.9644
cvl	-11.9651
▁dislocations	-11.9653
rebound	-11.9657
while	-11.9659
▁sensitivity	-11.9662
comfortably	-11.9666
▁01	-11.9677
▁ques	-11.9681
ened	-11.9683
▁00	-11.9684
▁referring	-11.9687
▁cardiovascular	-11.969
▁anticipation	-11.9692
ple	-11.9692
▁readiness	-11.9693
▁branches	-11.9694
▁ramus	-11.9696
▁stimulus	-11.9698
▁pericarditis	-11.9702
40-60'	-11.9704
▁swab	-11.9706
trop	-11.9711
▁nice	-11.9712
ers	-11.9716
they	-11.972
▁>97%	-11.9728
▁107**]	-11.9729
required	-11.9733
▁plat	-11.9736
▁periphery	-11.9737
▁noteaddendum	-11.9738
▁desaturated	-11.9743
▁63-	-11.9751
▁antifungal	-11.9751
▁apply	-11.9759
▁56-	-11.9761
▁24**]	-11.9763
▁7.43	-11.9763
▁walked	-11.9765
6/7	-11.9767
▁amnt	-11.9769
▁87**]	-11.9769
▁3:30	-11.977
moves	-11.977
▁pnx	-11.9772
30-60'	-11.9772
▁restarting	-11.9775
▁shakes	-11.9776
▁perineum	-11.978
place	-11.9782
▁amiodorone	-11.9784
▁verbally	-11.9784
▁thalamic	-11.9786
▁0830	-11.9787
▁80-120	-11.979
▁sufficient	-11.9791
▁ros	-11.9791
/40%	-11.9792
▁sesha	-11.9795
▁codes	-11.9803
▁30%.	-11.9804
99.4	-11.9805
99.6	-11.9806
▁arthroplasty	-11.9807
ement	-11.9808
-99	-11.9817
4.5	-11.9826
▁infiltrated	-11.9826
▁stump	-11.9827
▁relaxed	-11.9828
▁connected	-11.9834
▁paci	-11.9839
▁completion	-11.984
▁***	-11.9843
▁200'	-11.9854
▁81-	-11.9859
ding	-11.9859
▁4+	-11.9859
-21	-11.9859
▁doboff	-11.9859
▁bt	-11.9861
▁trouble	-11.9863
▁mvo	-11.9865
▁hyperinflation	-11.9866
▁steps	-11.9868
▁esophagogastr	-11.987
otomy	-11.9876
every	-11.9877
▁forehead	-11.9879
▁umbi	-11.9887
▁centered	-11.9889
▁smear	-11.9891
▁klebsiella	-11.9896
▁[**2-11**]	-11.9896
ical	-11.99
free	-11.9901
maintaining	-11.9903
use	-11.9904
wnl	-11.9904
▁mandible	-11.9907
▁cards	-11.9909
cx	-11.9912
▁ruptured	-11.9913
▁vegetation	-11.9918
card	-11.9919
▁perihepatic	-11.9925
▁olt	-11.9926
▁uni	-11.9932
▁helped	-11.9934
▁twitching	-11.9936
▁gauge	-11.9944
1600	-11.9945
transplant	-11.9945
positive	-11.9945
▁ligamentous	-11.9947
▁bwt	-11.9949
1.9	-11.9949
-26	-11.9951
▁tempsstable	-11.9953
ip	-11.9958
▁interventional	-11.9961
▁whipple	-11.9964
▁opacified	-11.9964
hematoma	-11.9965
▁aids	-11.997
▁sponge	-11.9971
vt	-11.9979
▁cpp	-11.9981
▁law	-11.9981
▁frustrated	-11.9987
▁warmed	-11.999
▁43**]	-11.9992
▁0630	-11.9993
▁dys	-11.9994
▁mature	-11.9997
▁neuropathy	-11.9998
▁0130	-11.9999
▁85%	-12.0002
▁activities	-12.0008
▁fact	-12.001
26,	-12.0013
briefly	-12.0014
▁140-160'	-12.0015
▁ugi	-12.0022
▁attimes	-12.0024
▁7.45	-12.0024
▁nervous	-12.0025
▁2300.	-12.0025
iate	-12.0028
▁posted	-12.0028
▁notepatient	-12.0029
▁acetaminophen	-12.0032
▁165	-12.0034
fed	-12.0036
▁cavitysize	-12.0037
▁neural	-12.0037
cre	-12.004
▁vtach	-12.0042
▁gluteal	-12.0043
▁coagulopathy	-12.0043
▁hyperdense	-12.0049
▁97-99%	-12.0053
▁[**2-12**]	-12.0054
▁session	-12.0056
airway	-12.0058
▁softand	-12.006
▁1+	-12.0062
liter	-12.0063
▁fro	-12.0066
▁withgood	-12.0067
▁random	-12.0068
▁pseudocyst	-12.0069
2.0	-12.0076
▁symptomatic	-12.0079
▁lo	-12.008
▁>50	-12.0082
▁158**]	-12.0084
▁desire	-12.0084
▁really	-12.0086
8-20**]	-12.0088
fontanels	-12.0091
▁implant	-12.0091
87	-12.0093
▁fos	-12.0097
▁28**]	-12.0098
▁tinge	-12.0105
ec	-12.0106
pupils	-12.011
▁def	-12.0112
▁**][**	-12.0113
▁264**]	-12.0115
▁antecubital	-12.0116
▁dimple	-12.0117
pda	-12.0119
▁toxic	-12.0119
▁#7.5	-12.012
▁digital	-12.013
ite	-12.013
admit	-12.0132
noon	-12.0132
yes	-12.0132
#1.	-12.0136
▁introduced	-12.0137
cy	-12.0137
▁40-80	-12.0138
▁argatroban	-12.0139
▁caused	-12.0139
weak	-12.014
4/7	-12.014
▁directly	-12.0141
▁endplate	-12.0143
▁eyeshields	-12.0143
▁73-	-12.0144
▁120-140'	-12.0144
▁properly	-12.0146
rectal	-12.0148
▁overlie	-12.015
▁120**]	-12.0151
vap	-12.0152
febrile	-12.0152
warm	-12.0154
▁7.37	-12.0155
▁>10	-12.0156
▁nif	-12.0159
ded	-12.0159
mv	-12.016
▁98.8	-12.0164
ening	-12.0168
96	-12.0174
▁gavagedover	-12.0175
▁hemidiaphragms	-12.0177
▁appearances	-12.0177
▁forcomfort	-12.0178
▁narrow	-12.0179
▁clindamycin	-12.0183
▁mepilex	-12.0183
treated	-12.0186
▁superiorly	-12.0191
▁reactions	-12.0192
▁resistant	-12.0195
▁2:30	-12.0195
din	-12.0199
expansion	-12.0203
▁trip	-12.0203
▁gangrene	-12.0205
▁7.33	-12.0206
tia	-12.0206
▁vols	-12.0206
▁identify	-12.021
▁true	-12.0212
▁notefen	-12.0213
-15	-12.0214
▁intially	-12.0217
potential	-12.022
course	-12.022
▁25-30	-12.0223
▁tia	-12.0223
▁admissions	-12.0228
▁bronchodilators	-12.0231
▁ivab	-12.0235
▁mildretractions	-12.0235
▁unasyn	-12.0237
▁vasogenic	-12.0237
▁reapplied	-12.0239
▁anterolisthesis	-12.0243
▁embolic	-12.0249
eral	-12.0253
▁treating	-12.0253
▁7.1	-12.0261
▁wiht	-12.0269
▁inhaler	-12.0277
▁considerable	-12.0278
▁wellperfused	-12.0279
▁dosed	-12.028
view	-12.0282
▁pinkheent	-12.0285
▁vaseline	-12.0288
▁7.36	-12.029
night	-12.0293
▁transplanted	-12.0293
??	-12.0296
▁agents	-12.03
09	-12.0301
leg	-12.0301
▁redemonstrated	-12.0305
▁7.26	-12.0308
▁fhp	-12.0309
▁>2	-12.031
▁obeys	-12.0312
▁1:30	-12.0314
structurally	-12.0315
▁correctly	-12.0316
about	-12.0316
▁montior	-12.0318
▁>200	-12.0319
▁mineral	-12.0321
crackles	-12.0322
hemodynamically	-12.0322
▁86-	-12.0324
▁desired	-12.0324
▁contracted	-12.0325
▁fingerstick	-12.0326
▁autodiuresing	-12.0332
-115	-12.0333
mri	-12.0333
▁llq	-12.0333
▁coworker	-12.0335
▁tl	-12.0338
▁phosphorus	-12.0338
abnormality	-12.0343
▁alot	-12.0345
▁unloading	-12.0345
▁mgm	-12.0348
▁inthe	-12.0351
▁55%	-12.0352
▁ste	-12.0355
-42	-12.0357
▁yrs	-12.0359
1/2	-12.0359
ses	-12.036
▁approval	-12.0366
spo	-12.0366
▁100.9	-12.0366
▁mb	-12.0369
diameter	-12.037
▁435.	-12.0371
▁255**]	-12.0372
▁scout	-12.0373
▁analgesia	-12.0376
▁plantar	-12.0381
94	-12.0383
▁scapula	-12.0386
posterior	-12.039
▁loading	-12.0391
▁basis	-12.0394
ens	-12.0395
otic	-12.0396
-07	-12.0396
▁afterwards	-12.0397
▁systemsneuro	-12.0398
bl	-12.0402
▁message	-12.0407
▁begining	-12.0408
▁undergoing	-12.0408
07	-12.0409
▁cocaine	-12.0409
▁yel	-12.0412
.#5:	-12.0413
▁unsure	-12.0414
▁soc	-12.0414
▁spon	-12.0415
▁insert	-12.0419
▁residents	-12.0421
▁tested	-12.0425
▁tell	-12.0428
surgery	-12.043
7-21**]	-12.043
▁roll	-12.043
▁bms	-12.0431
hi	-12.0431
▁press	-12.0432
6-4**]	-12.0438
▁notednutrition	-12.0438
▁pneumonic	-12.0441
▁kefzol	-12.0445
▁proc	-12.0446
1300	-12.0449
▁mls	-12.0449
51	-12.0452
ey	-12.0453
▁amylase	-12.0453
▁pepcid	-12.0455
▁154	-12.0455
▁fservice	-12.0456
qui	-12.0457
▁tovisit	-12.0458
ke	-12.0458
cloudy	-12.046
▁awakened	-12.046
▁syncopal	-12.0463
3.8	-12.0463
antibiotics	-12.0465
▁0100.	-12.0465
▁agrees	-12.0474
hold	-12.0474
▁240	-12.0474
▁calculi	-12.0475
cent	-12.0476
chamber	-12.048
▁rests	-12.0481
▁manual	-12.0482
▁outpt	-12.0482
▁[**1-29**]	-12.0483
▁sheaths	-12.0485
▁uv	-12.0486
=120	-12.0487
▁sisters	-12.0489
caffeine	-12.0493
▁loaded	-12.0493
0/10	-12.0493
callphysical	-12.0498
▁rpt	-12.0509
▁indicates	-12.0511
▁granuloma	-12.0512
2.8	-12.0514
▁correction	-12.0518
30-50'	-12.0519
-125	-12.0521
▁indistinctness	-12.0524
▁seven	-12.0524
▁paralytic	-12.0527
ear	-12.0528
▁assault	-12.0531
ities	-12.0531
▁7.38	-12.0532
▁thighs	-12.0532
uop	-12.0532
▁51-	-12.0539
-85	-12.0539
▁precaution	-12.0541
▁retracted	-12.0546
▁mgt	-12.0548
▁bsgu	-12.0557
54	-12.0558
ventriculomegaly	-12.056
8-14**]	-12.0565
stix	-12.0566
▁entering	-12.0567
▁1500.	-12.0573
▁hemodynimic	-12.0573
▁emerged	-12.0573
▁ne	-12.0576
dnr	-12.0576
table	-12.0576
▁telemetry	-12.0577
oin	-12.0579
▁dyspneic	-12.058
▁sidelying	-12.0588
-34	-12.0588
▁wksremain	-12.059
py	-12.059
▁bipolar	-12.0591
history	-12.0591
▁prepared	-12.0599
▁anastomotic	-12.0601
▁paralysis	-12.0601
▁7.31	-12.0602
>30	-12.0604
▁100-200	-12.0606
▁ivb	-12.0617
▁upward	-12.062
▁gated	-12.0621
▁cavernous	-12.0622
▁division	-12.0622
▁recruitment	-12.0622
▁51**]	-12.0622
▁scene	-12.0624
▁remember	-12.0624
abgs	-12.0627
form	-12.0627
▁60-90	-12.0629
ssc	-12.0634
▁doubt	-12.0634
▁hemiparesis	-12.0636
agap	-12.0637
▁electively	-12.0639
▁nondisplaced	-12.064
▁rsc	-12.0644
/40'	-12.0644
ase	-12.0649
▁attendday	-12.065
▁expressing	-12.0652
86	-12.0652
distal	-12.0654
=60	-12.0657
▁iugr	-12.0657
▁pathologic	-12.0662
▁cyanotic	-12.0663
=30	-12.0665
▁cramping	-12.0669
▁uterus	-12.0671
▁gir	-12.0671
▁respir	-12.0671
ped	-12.0673
primary	-12.0677
▁multipodus	-12.0678
▁particular	-12.068
occasionally	-12.0687
03	-12.0692
▁nestled	-12.0692
shortness	-12.0699
▁24/6	-12.0701
/60-70	-12.0702
▁lm	-12.0702
▁consultation	-12.0706
▁assisting	-12.0714
▁[**2-9**]	-12.0718
▁96-98%.	-12.072
fluoro	-12.072
▁evalaute	-12.072
▁diuretic	-12.0723
▁waffle	-12.0724
▁98**]	-12.0728
▁push	-12.0728
▁coag	-12.0732
▁preparing	-12.0732
ionized	-12.0734
pedi	-12.0734
inferolateral	-12.0734
discomfort	-12.0734
▁adenocarcinoma	-12.0734
▁[**2-10**]	-12.0735
▁solution	-12.0735
report	-12.0735
▁screened	-12.0738
▁sides	-12.074
▁32**].	-12.0741
▁coils	-12.0747
▁96-99%	-12.075
5-28**]	-12.0754
▁ncpap	-12.0755
▁path	-12.0761
4.2	-12.0761
weaning	-12.0761
▁7.27	-12.0763
▁eccymotic	-12.0763
▁locked	-12.0769
▁retx	-12.077
▁myself	-12.077
overnight	-12.0771
▁ureteral	-12.0771
▁72.6	-12.0773
▁[**1-17**]	-12.0775
appropriately	-12.0782
dinfant	-12.0785
▁dss	-12.0785
▁clipping	-12.0786
▁108**]	-12.0787
#1-	-12.0788
▁hopefully	-12.0791
▁cerebellum	-12.0791
eg	-12.0792
cmln	-12.0793
▁dye	-12.0795
▁408**]	-12.0798
▁itself	-12.0801
art	-12.0802
▁193**]	-12.0809
-50%	-12.0819
▁7.46	-12.082
extremities	-12.0821
▁equivocal	-12.0827
84	-12.0828
▁pacifer	-12.0829
▁7:30	-12.0831
▁95-97%	-12.0832
▁[**2-2**]	-12.0832
3.3	-12.0834
▁donor	-12.0836
0.8	-12.0837
22.	-12.0839
disciplinary	-12.0841
▁laparotomy	-12.0841
second	-12.0845
▁insheepskin	-12.0845
way	-12.0846
▁together	-12.0846
▁unavailable	-12.0856
▁developmento	-12.0858
-""	-12.0859
▁calcific	-12.0863
▁pinpoint	-12.0863
▁[**1-18**]	-12.0863
▁27.5	-12.0864
▁pnding	-12.0864
▁collecting	-12.0871
▁sg	-12.0873
▁administering	-12.0875
▁cll	-12.0877
▁variceal	-12.0877
▁notei	-12.0879
▁97**]	-12.0879
▁.6	-12.0882
▁belongings	-12.0884
▁cancelled	-12.0884
▁elements	-12.0888
▁others	-12.0892
▁9**]	-12.0894
▁bite	-12.0903
▁nasointestinal	-12.0906
▁adhesions	-12.0907
▁alternate	-12.0912
▁od	-12.0916
▁revealing	-12.0916
▁26.5	-12.0926
▁ten	-12.0926
etoh	-12.0929
extensive	-12.0929
▁aunt	-12.0933
▁unrestrained	-12.0935
▁mineralization	-12.0935
▁'[**	-12.0936
hypoxia	-12.0936
sub	-12.0939
▁btwn	-12.0943
▁overhydration	-12.0944
▁shot	-12.0947
▁surgeon	-12.0949
husband	-12.095
wks	-12.0951
▁>65	-12.0953
▁fan	-12.0954
▁emergently	-12.0954
3-5	-12.0956
morphine	-12.0958
▁reverse	-12.096
initially	-12.0961
▁normalized	-12.0964
▁130-150'	-12.0964
▁dsticks	-12.0965
dis	-12.0967
▁elev	-12.0971
▁aligned	-12.0971
▁400'	-12.0972
bleeding	-12.0972
▁card	-12.0975
▁hygeine	-12.0978
▁woken	-12.098
▁supervised	-12.0982
ib	-12.0988
▁prune	-12.0992
▁lordotic	-12.0993
▁.8	-12.0993
▁something	-12.0996
▁hung	-12.1001
▁maneuvers	-12.1002
0.6	-12.1003
emic	-12.1004
face	-12.1005
▁100-150	-12.1009
▁clock	-12.101
▁detailsneuro	-12.1012
▁washed	-12.1014
mail	-12.1015
▁deline	-12.1016
▁20-50	-12.1024
▁7.42	-12.1026
▁posture	-12.1027
▁feedswell	-12.1027
▁confluence	-12.1029
being	-12.1036
▁recommendation	-12.1036
▁485**]	-12.1036
▁respalor	-12.1037
▁fused	-12.1037
▁290.4	-12.1042
▁345**]	-12.1043
▁[**1-23**]	-12.1043
▁nodded	-12.1044
previous	-12.1045
agitated	-12.1046
▁addressed	-12.1048
ene	-12.105
▁100-120'	-12.1053
belly	-12.1054
onc	-12.1068
mode	-12.107
▁independant	-12.1071
▁experience	-12.1072
▁srr	-12.1074
▁accepted	-12.1075
▁digit	-12.1076
▁teams	-12.1078
▁[**2-3**]	-12.1079
▁cheek	-12.1079
▁distortion	-12.1081
▁z	-12.1083
▁caresee	-12.1086
▁spectral	-12.1088
▁pauses	-12.1091
▁headaches	-12.1096
dressing	-12.1098
▁nurses	-12.1099
=[**	-12.1099
dsd	-12.1099
▁prilosec	-12.1103
▁17/5	-12.1105
buttocks	-12.1109
circ	-12.1111
▁72**]	-12.1114
▁spurring	-12.1118
▁feeder	-12.112
▁foraminal	-12.1131
mal	-12.1132
cns	-12.1135
▁angiography	-12.114
(25-50	-12.1141
interim	-12.1146
▁extraction	-12.1147
▁warranted	-12.1148
▁tobe	-12.1148
▁strep	-12.1155
▁asneeded	-12.1155
>2	-12.1159
▁bldy	-12.1159
-105	-12.1159
▁expired	-12.1163
nl	-12.1164
wave	-12.1165
▁289**]	-12.1174
93	-12.1175
▁supple	-12.1178
▁applesauce	-12.1179
▁370**]	-12.118
▁gb	-12.1184
milestones	-12.1187
▁hcc	-12.1187
▁psh	-12.1188
▁.2	-12.1189
▁erythematous	-12.1191
▁metacarpal	-12.1194
cardiovascular	-12.1194
▁7.35	-12.1198
sternal	-12.12
▁ce	-12.12
▁60-100	-12.1202
7-11	-12.1203
▁gastrostomy	-12.121
▁vertical	-12.1213
icu	-12.1215
tpn	-12.1216
▁front	-12.1216
peripheral	-12.1216
▁>65.	-12.1219
deve	-12.1226
▁sometime	-12.1227
abx	-12.1229
rom	-12.1231
▁120-130'	-12.1231
▁oncology	-12.1236
▁152	-12.1239
▁88-	-12.1241
▁[**1-25**]	-12.1242
ai	-12.1242
▁7.2	-12.1247
trans	-12.1255
▁incidentally	-12.1256
▁[**2-6**]	-12.1256
▁perm	-12.1257
▁matrix	-12.1266
turned	-12.1268
▁agstable	-12.127
▁[**2-4**]	-12.1273
recheck	-12.128
▁[**12-25**]	-12.1281
1200	-12.1291
▁-->	-12.1295
▁flushing	-12.1296
▁intraventricula	-12.1296
▁rails	-12.1298
▁dictated	-12.1302
▁lyte	-12.1302
▁5.9	-12.1304
csm	-12.1308
palp	-12.131
8-9	-12.1311
06	-12.1313
▁thrombectomy	-12.1321
-100%	-12.1323
▁vf	-12.1324
▁mvi	-12.1327
▁+1	-12.133
▁desated	-12.1331
▁7.39	-12.1337
although	-12.134
▁[**1-28**]	-12.1342
▁tvs	-12.1343
mask	-12.1343
▁guard	-12.1344
▁atrio	-12.1346
▁94-100%.	-12.1348
▁indistinct	-12.1348
▁deformities	-12.1348
▁prom	-12.1349
1-5	-12.1351
▁syst	-12.1351
▁passy	-12.1354
▁1250	-12.1356
▁twitches	-12.1366
turning	-12.1366
epi	-12.1368
0.7	-12.1369
▁[**2-7**]	-12.137
▁tri	-12.1375
▁error	-12.1376
▁15**]	-12.1376
▁lowered	-12.1378
▁conray	-12.1378
▁paper	-12.1379
▁fussy	-12.138
▁relaxation	-12.1381
within	-12.1382
/0.5	-12.1384
▁people	-12.1386
▁bcx	-12.1387
▁lifting	-12.1389
▁[**2-1**]	-12.1393
▁thk	-12.1393
▁decide	-12.1398
▁22/5	-12.1398
▁>98%.	-12.14
▁94**]	-12.1401
medicated	-12.1403
▁photot	-12.1404
▁sedatives	-12.1406
▁1900.	-12.1409
▁400-500	-12.1411
▁equipment	-12.1412
▁periodically	-12.1417
▁defibrillator	-12.1424
▁box	-12.1426
▁attributed	-12.1426
▁megacolon	-12.1432
▁abdomensoft	-12.1433
6-12	-12.1435
indeterminate	-12.1435
▁intermit	-12.1436
-68	-12.1438
plat	-12.1439
▁desatting	-12.1441
/69	-12.1444
▁works	-12.1447
▁101.7	-12.1448
▁6:30	-12.1451
▁6.3	-12.1451
coughing	-12.1456
aline	-12.1457
▁nsclc	-12.1459
[	-12.1459
vl	-12.1459
▁hydromorphone	-12.1459
▁kangarooed	-12.146
▁instruction	-12.1461
▁paratracheal	-12.1462
▁bagging	-12.1465
▁adjustments	-12.1465
drainage	-12.1466
▁hyperactive	-12.1467
ay	-12.1467
▁leading	-12.147
▁lacunar	-12.147
▁query	-12.147
net	-12.1471
▁apneas	-12.1474
▁[**2-13**]	-12.1475
▁toxicity	-12.1478
▁thereafter	-12.1478
▁[**1-26**]	-12.1478
sim	-12.1482
ctic	-12.1485
▁supplementation	-12.1485
sister	-12.1489
retic	-12.1492
bloody	-12.1496
▁alkalotic	-12.15
▁6.4	-12.1509
▁write	-12.1509
▁pal	-12.151
lima	-12.1512
92	-12.1518
▁strongly	-12.1521
▁[**1-11**]	-12.1524
▁unilateral	-12.1524
hemodynamics	-12.1524
▁8**]:	-12.1525
▁gvhd	-12.1541
▁boundries	-12.1541
▁reminded	-12.1547
=40-60	-12.1549
uvc	-12.1551
gbs	-12.1552
▁[**1-3**]	-12.1553
[2]	-12.1554
▁hickman	-12.1554
▁vasospasm	-12.1554
▁triphasic	-12.1554
4.4	-12.1557
▁accounting	-12.1558
▁lipase	-12.1558
▁spread	-12.1559
▁greatly	-12.156
▁supporting	-12.157
unresponsiveness	-12.1572
▁6.2	-12.1572
▁respiration	-12.1572
▁eight	-12.1574
bilateral	-12.1574
svc	-12.1574
rin	-12.1575
▁role	-12.1588
rays	-12.1596
▁surgeries	-12.16
▁conversion	-12.1601
▁94-98%	-12.1611
-78	-12.1613
▁similac	-12.1614
dp	-12.1615
▁isolated	-12.1616
▁arrive	-12.1616
▁toliet	-12.1617
52	-12.162
▁excision	-12.1624
08	-12.163
▁barely	-12.1631
/74	-12.1631
▁95-98%.	-12.1637
-95	-12.1637
▁sequences	-12.1638
▁eves	-12.1638
▁wrong	-12.1639
▁2400.	-12.1643
▁drinks	-12.1646
▁remaines	-12.1649
▁"#1	-12.165
▁omed	-12.1653
▁tendon	-12.1656
22.8	-12.1659
▁[**1-24**]	-12.1662
▁chnage	-12.1662
-96	-12.1663
▁maybe	-12.1666
▁vomitting	-12.1672
▁synagis	-12.1675
ability	-12.168
▁omr	-12.1681
▁threshold	-12.1682
iti	-12.1683
rialfibrillation	-12.1683
▁[**1-6**]	-12.1686
fenwt	-12.1688
▁ppv	-12.1688
between	-12.1689
▁restraint	-12.1689
short	-12.169
ged	-12.169
opens	-12.169
▁ingestion	-12.1694
▁gaze	-12.1696
▁transparent	-12.1702
▁dstik	-12.1708
fs	-12.1708
▁afosf	-12.1713
▁dominant	-12.1714
▁ped	-12.1716
▁pofeeds	-12.172
-94	-12.1723
fluids	-12.1723
through	-12.1724
▁boot	-12.1728
▁203**]	-12.1729
▁neurologic	-12.173
▁frontoparietal	-12.1733
▁[**1-19**]	-12.1733
▁28.5	-12.1735
▁arrives	-12.1737
▁[**1-8**]	-12.1739
▁germinal	-12.174
▁tenuous	-12.1741
▁0030	-12.1742
▁climbing	-12.1744
▁8-10	-12.1747
▁settling	-12.1749
▁29.5	-12.175
presp	-12.1751
▁poly	-12.1755
put	-12.1756
▁rusty	-12.1757
▁>/=	-12.1766
▁286**]	-12.1771
▁50-	-12.1772
▁lorazepam	-12.1772
ible	-12.1772
bradycardias	-12.1773
▁compliant	-12.1774
▁anbx	-12.1774
rconduction	-12.1777
▁horns	-12.178
▁wit	-12.178
applied	-12.1784
/50-60	-12.1786
492**]	-12.1786
extended	-12.1787
▁lucencies	-12.1788
▁colonization	-12.1789
ips	-12.179
nausea	-12.1794
▁acetate	-12.1797
▁fsg	-12.1797
▁325	-12.1801
▁operating	-12.1804
▁devneeds	-12.1804
▁correlating	-12.1811
80'	-12.1811
▁qtt	-12.1812
draining	-12.1812
-62	-12.1812
19.4	-12.1819
ga	-12.1819
-118	-12.1823
control	-12.1824
▁cisatracurium	-12.183
nr	-12.1832
▁palpitations	-12.1833
▁epinephrine	-12.1841
▁[**1-22**]	-12.1842
▁enlarging	-12.1843
▁hydrocele	-12.1843
▁[**12-28**]	-12.1843
vascular	-12.1852
▁concurrent	-12.1853
▁dia	-12.1854
▁didn	-12.1854
▁recovering	-12.1859
▁physically	-12.186
▁86**]	-12.1861
qsr	-12.1866
▁circumferential	-12.1866
▁[**3-6**]	-12.1867
▁somnolence	-12.1869
▁=/	-12.187
▁60%,	-12.187
-16	-12.1872
▁[**2-8**]	-12.188
▁localized	-12.188
steady	-12.1882
▁850	-12.1888
▁nonbilious	-12.1889
ii	-12.189
/50%	-12.1891
▁150-180	-12.1895
▁prev	-12.1896
▁subgaleal	-12.1899
▁deflated	-12.1899
▁bouncy	-12.1902
▁detection	-12.1907
▁awakening	-12.1913
throughout	-12.1915
▁rolling	-12.1918
▁0230	-12.1918
/78	-12.192
▁lingular	-12.192
▁sounding	-12.1921
▁[**1-21**]	-12.1923
▁hemorrhages	-12.1925
▁dental	-12.1925
gy	-12.1926
▁reassuring	-12.1928
▁developmentally	-12.1929
▁[**12-26**]	-12.1931
=22	-12.1932
▁ultram	-12.1932
mrsa	-12.1933
bleed	-12.1933
▁die	-12.1936
▁adjusting	-12.1938
▁iu	-12.1938
▁program	-12.1938
▁assoc	-12.1939
transferred	-12.1939
▁rhoncherous	-12.1941
wn	-12.1944
▁cleft	-12.1946
▁axisdeviation	-12.1946
▁tracheoplasty	-12.1947
▁hydral	-12.1947
passing	-12.1948
▁45%	-12.1949
its	-12.1949
lab	-12.1953
▁squamous	-12.1954
-1900	-12.1955
#8	-12.1958
▁94-96%	-12.1961
▁fold	-12.1961
▁ttn	-12.1963
▁meta	-12.1964
▁asap	-12.1966
▁til	-12.1966
▁bites	-12.1969
▁combined	-12.197
▁1900-0730	-12.1973
▁importance	-12.1978
▁peritonitis	-12.1982
30'	-12.1982
▁ulna	-12.1983
thoracic	-12.1986
▁diapers	-12.1986
▁pus	-12.1986
▁appr	-12.1987
/76	-12.1992
muir	-12.1993
▁endocrine	-12.1994
▁communicates	-12.1998
▁preemie	-12.2003
subarachnoid	-12.2003
▁clinician	-12.2006
warmer	-12.2006
▁[**1-15**]	-12.2011
▁[**1-27**]	-12.2011
▁isseen	-12.2014
▁602.	-12.2015
labored	-12.2016
▁[**2-5**]	-12.2016
▁hypoxemic	-12.2019
▁supraclavicular	-12.2019
▁reticular	-12.2019
▁80.7	-12.202
▁sling	-12.202
rib	-12.2021
▁130-170	-12.2023
ize	-12.2024
▁mentating	-12.2027
▁382**]	-12.2033
▁5%	-12.2034
▁adn	-12.2035
▁[**1-4**]	-12.2036
▁stoolgu	-12.204
▁atn	-12.2043
lib	-12.2048
probably	-12.2048
▁[**2-24**]	-12.2051
▁87%	-12.2053
▁hydrocortisone	-12.2057
▁palpate	-12.2058
ites	-12.206
▁withpromod	-12.2061
▁tightness	-12.2066
▁declining	-12.2067
▁[**12-29**]	-12.2068
▁35**]	-12.2068
▁mvmt	-12.2071
▁156	-12.2074
▁aggressively	-12.2075
cromioclavicular	-12.2075
1.4	-12.2081
previously	-12.2082
▁niece	-12.2083
▁reaccumulation	-12.2084
▁[**1-12**]	-12.2092
congenital	-12.2092
-64	-12.2095
▁thereis	-12.2095
83	-12.2096
phos	-12.2097
=25	-12.2099
get	-12.21
▁dorsalis	-12.2102
lipids	-12.2105
▁retro	-12.2107
▁(2+)	-12.2108
▁readings	-12.211
▁transduced	-12.211
▁aox	-12.2111
▁[**12-24**]	-12.2116
▁shadowing	-12.2118
▁oximeter	-12.2121
▁hospitalized	-12.2126
▁avm	-12.2127
▁patches	-12.2127
mostly	-12.2128
▁hf	-12.2129
▁tls	-12.2131
▁aureus	-12.2132
▁hypodense	-12.2132
▁punctate	-12.2132
▁[**12-30**]	-12.2133
ered	-12.2134
ose	-12.2136
▁verbalize	-12.2139
ast	-12.214
▁paperwork	-12.214
:00	-12.2142
▁49-	-12.2143
ner	-12.2143
▁50-80	-12.2143
pic	-12.2145
decrease	-12.2147
▁azygos	-12.2149
▁intervene	-12.215
**]	-12.2152
▁ebm	-12.2152
rare	-12.2153
▁driving	-12.2157
▁flexi	-12.2157
▁jtube	-12.216
▁468**]	-12.216
▁integrillin	-12.2164
▁tubefeeds	-12.2168
▁173**]	-12.2168
rx	-12.2172
▁7.40	-12.2175
cmmeds	-12.2176
▁centrally	-12.2178
▁bilaterallycv	-12.2183
▁tearful	-12.2183
axis	-12.2185
later	-12.2185
▁biphasic	-12.2189
▁[**1-16**]	-12.219
▁97.8	-12.2191
▁interaction	-12.2191
▁>120	-12.2194
▁pseudo	-12.2196
▁wwpneuro	-12.2199
▁cbi	-12.2201
antihypertensive	-12.2201
▁passage	-12.2201
hands	-12.2205
▁missing	-12.2206
▁crohn	-12.2206
3.4	-12.2208
▁exploration	-12.2208
▁corresponds	-12.2212
▁[**1-30**]	-12.222
▁seroquel	-12.2222
▁[**1-7**]	-12.2223
▁walker	-12.2229
▁handsto	-12.223
▁bifurcation	-12.2231
▁[**3-21**]	-12.2231
▁characterized	-12.2232
▁inconsistent	-12.2232
▁0/7	-12.2235
▁directions	-12.2237
▁spirometry	-12.2239
▁suite	-12.2239
getting	-12.2241
▁noteprocedure	-12.2245
▁bifrontal	-12.2247
-44	-12.225
-38	-12.2252
▁subsided	-12.2252
▁maximize	-12.2254
fascicular	-12.2257
pnd	-12.2259
covered	-12.226
▁carafate	-12.226
▁thrashing	-12.226
▁proceed	-12.2263
▁anatomy	-12.2264
▁collected	-12.2265
▁.21	-12.2265
/39/	-12.2269
▁accentuated	-12.2269
▁roomair	-12.2271
▁21/6	-12.2272
▁applicable	-12.2272
▁calcaneal	-12.2272
▁bronchiectasis	-12.2272
▁[**1-2**]	-12.2273
▁blockleft	-12.2273
▁explanation	-12.2273
▁tail	-12.2278
delayed	-12.2282
▁admits	-12.2284
▁tag	-12.2287
▁oliguria	-12.2289
les	-12.2294
▁inadequate	-12.2296
chondral	-12.2297
▁unassisted	-12.2297
▁jello	-12.2302
▁90%.	-12.2305
▁apc	-12.2307
▁catch	-12.2309
▁palpated	-12.231
▁tapered	-12.2311
+=.	-12.2312
-33	-12.2312
▁0730	-12.2314
▁subc	-12.2315
▁andflat	-12.2322
▁[**3-17**]	-12.2322
▁[**1-9**]	-12.2322
=24	-12.2326
▁shin	-12.2328
▁boost	-12.233
▁[**1-20**]	-12.2331
loose	-12.2332
▁incont	-12.2338
▁signif	-12.2341
signs	-12.2346
▁gastroparesis	-12.2346
645.6	-12.2348
▁18-20	-12.2349
▁scores	-12.2349
▁asess	-12.2351
▁abi	-12.2352
ition	-12.2352
▁7.44	-12.2361
▁(-).	-12.2363
▁paraspinal	-12.2363
▁rami	-12.2365
settings	-12.2365
▁mottles	-12.2365
recieved	-12.2374
▁decompensated	-12.2377
▁clamp	-12.2378
▁153	-12.2381
▁tries	-12.2392
▁0200.	-12.2394
▁feso	-12.2403
▁[**12-22**]	-12.2406
▁symm	-12.2407
▁[**1-31**]	-12.2411
▁aao	-12.2412
dilated	-12.2417
void	-12.2418
▁beefy	-12.242
▁cecum	-12.2422
set	-12.2422
type	-12.2423
▁222**]	-12.2425
ruddy	-12.2425
▁19/5	-12.2425
daily	-12.2426
▁[**2-14**]	-12.2426
two	-12.243
▁[**1-5**]	-12.243
▁dosage	-12.2431
▁gastro	-12.2432
▁triggered	-12.2435
?"	-12.2436
▁damage	-12.2439
▁emphysematous	-12.2439
▁creamy	-12.244
▁99**]	-12.2441
▁measurement	-12.2442
level	-12.2443
cell	-12.2444
▁6.6	-12.2444
▁malleolus	-12.2447
▁spect	-12.2452
gastric	-12.2452
▁fentf	-12.2452
▁shoulders	-12.2454
▁pill	-12.2455
▁hemenegative	-12.2457
79.6	-12.2457
ulation	-12.2462
▁87-	-12.2465
▁conditioning	-12.2465
▁[**2-22**]	-12.2466
=14	-12.2469
81	-12.2469
▁fix	-12.2472
▁hyperdensity	-12.2472
▁resulted	-12.2478
▁gains	-12.2479
▁[**2-27**]	-12.2481
▁inappropriate	-12.2481
▁coughs	-12.2482
▁conduit	-12.2487
▁anomalies	-12.2489
▁inquiries	-12.2489
▁staining	-12.249
cavity	-12.2493
tra	-12.2493
▁develop	-12.2494
-170'	-12.2495
▁36**]	-12.2496
▁lasted	-12.2502
▁484.	-12.2502
▁[**1-13**]	-12.2507
▁decreases	-12.2513
▁[**2-17**]	-12.2515
1.7	-12.2515
▁""[**	-12.2516
▁98.7	-12.2516
▁involve	-12.2519
▁glycerin	-12.2519
▁bas	-12.2519
▁comm	-12.2523
▁asymmetry	-12.2523
▁milliseconds	-12.2523
▁[**2-28**]	-12.2523
▁existing	-12.2524
▁300'	-12.2526
5.0	-12.2527
▁0330	-12.2529
▁noteexam	-12.2535
▁fxs	-12.2535
above	-12.2535
▁7.3	-12.2537
▁highly	-12.2538
cor	-12.2539
▁calmer	-12.2539
▁myasthenia	-12.254
▁tapped	-12.254
▁[**3-15**]	-12.254
▁itching	-12.2542
▁thecal	-12.2543
ional	-12.2543
▁peribronchial	-12.2549
▁[**3-2**]	-12.2549
lus	-12.2552
slept	-12.2553
▁ie	-12.2553
▁158	-12.2553
▁activebowel	-12.2556
▁calmed	-12.2556
-37	-12.2557
▁ventilating	-12.2557
▁click	-12.2557
ution	-12.2557
▁angioplasty	-12.2559
▁78**]	-12.2563
▁95-99%	-12.2564
▁orthopedic	-12.2565
▁context	-12.2566
▁centimeters	-12.257
freq	-12.2571
▁collision	-12.2574
▁blurring	-12.2574
▁bolt	-12.2575
▁hepatorenal	-12.2577
▁tra	-12.2579
▁6.7	-12.2579
vol	-12.2582
▁[**2-15**]	-12.2583
▁mildlythickened	-12.2583
7-9	-12.2585
▁comf	-12.2586
▁fatigued	-12.2587
perrla	-12.2587
nuero	-12.2588
sys	-12.2591
▁checklist	-12.2592
▁clusters	-12.2594
▁ebl	-12.2596
▁instilled	-12.26
1400	-12.26
▁pivot	-12.2601
pod	-12.2602
▁profound	-12.2602
▁49.9	-12.2604
/71	-12.2604
hy	-12.2604
▁enteralfeeds	-12.2607
orient	-12.2608
▁[**1-10**]	-12.2609
▁16-20	-12.2609
▁hypotonic	-12.2611
▁member	-12.2612
▁clogged	-12.2612
▁bruised	-12.2616
▁shiley	-12.2617
.#3:	-12.2617
▁69.9	-12.2619
▁angry	-12.2625
hal	-12.2628
▁40-60,	-12.263
▁corn	-12.263
▁icps	-12.2643
rea	-12.2646
▁element	-12.2647
piece	-12.2647
=18	-12.2648
▁48**]	-12.2649
▁[**3-18**]	-12.266
▁ardsnet	-12.2661
▁interimchange	-12.2663
▁shape	-12.2666
▁latter	-12.2667
▁5-6	-12.2668
king	-12.2668
▁saying	-12.2673
-91	-12.2677
ically	-12.2679
▁ivfs	-12.268
▁containing	-12.2682
▁anal	-12.2684
pac	-12.2685
tre	-12.2691
▁labeled	-12.2692
▁structural	-12.2693
fent	-12.2693
▁fontanells	-12.2695
▁calculated	-12.2697
▁rim	-12.27
▁immobilizer	-12.2703
▁nicely	-12.2705
▁maee	-12.2705
▁20-25	-12.271
▁>98%	-12.2712
▁waxes	-12.2712
▁mobile	-12.2716
▁[**2-26**]	-12.272
aflutter	-12.2721
▁odor	-12.2724
▁ret	-12.2725
▁missed	-12.2725
prob	-12.2727
▁secr	-12.2727
▁cardioverted	-12.2729
ber	-12.2731
▁alertness	-12.2731
▁nahco	-12.2734
trialabnormality	-12.2736
▁[**3-4**]	-12.2738
▁nite	-12.2741
▁borders	-12.2741
1.2	-12.2743
▁[**2-16**]	-12.2743
▁clarification	-12.2746
▁resultant	-12.2747
▁trazadone	-12.2749
▁recall	-12.2751
▁tremor	-12.2752
infection	-12.2753
▁12/5	-12.2755
▁25.5	-12.2762
▁[**3-16**]	-12.2764
440**]	-12.2769
▁21-25%.	-12.277
reg	-12.2771
▁granulation	-12.2772
▁dashboard	-12.2772
▁wtih	-12.2772
▁impaction	-12.2773
▁18-24	-12.2775
:31	-12.2778
▁[**3-13**]	-12.2781
▁adl	-12.2783
boundaries	-12.2783
▁enfacare	-12.2785
yom	-12.2789
▁dimin	-12.2792
▁subjective	-12.2793
▁nebulizer	-12.2795
▁wiggles	-12.2795
▁recons	-12.2803
congestive	-12.2804
worsening	-12.2812
▁dipped	-12.2816
father	-12.2821
▁sxtn	-12.2827
▁reinforce	-12.2829
▁limitation	-12.2831
aw	-12.2832
/75	-12.2835
▁>95%,	-12.2838
▁240**]	-12.2838
▁minasp	-12.2839
▁grew	-12.2842
▁6-8	-12.2849
▁cea	-12.2855
4%	-12.2857
fiber	-12.2861
▁6.8	-12.2865
▁training	-12.2869
-14	-12.2871
▁canula	-12.2874
esis	-12.2879
▁recovers	-12.2879
▁dens	-12.2881
▁136**]	-12.2882
▁asymmetrical	-12.2883
liquid	-12.2892
▁impairment	-12.2892
▁tfb	-12.2892
▁favor	-12.2894
dysmorphic	-12.2894
▁3-5	-12.2896
▁dstix	-12.2898
▁percocets	-12.2899
▁[**1-1**]	-12.2903
▁actually	-12.2904
▁pivs	-12.2905
▁fluctuation	-12.2905
▁559.	-12.2906
▁noprevious	-12.2912
iness	-12.2912
▁atenolol	-12.2912
▁[**12-27**]	-12.2912
▁shadow	-12.2916
mc	-12.2919
▁[**3-7**]	-12.2921
▁96-97%	-12.2922
▁"76	-12.2922
91	-12.2925
▁proximally	-12.2926
▁ngtd	-12.2926
▁230**]	-12.2927
rated	-12.2928
spit	-12.2929
▁ser	-12.293
▁98.2	-12.2937
▁centesis	-12.2938
▁[**12-31**]	-12.2939
▁cistern	-12.2939
▁immune	-12.2944
▁bridging	-12.2947
30-40	-12.2954
▁48-	-12.2954
▁96-99%.	-12.2954
▁outer	-12.2958
▁records	-12.2963
▁neonatologist	-12.2965
hyper	-12.2972
wob	-12.2973
▁norvasc	-12.2974
▁vts	-12.2976
▁nephew	-12.298
▁[**3-12**]	-12.2983
▁saturating	-12.2984
ral	-12.2985
▁halo	-12.2985
▁mic	-12.2986
▁strain	-12.2986
making	-12.299
▁uncooperative	-12.2992
obstruction	-12.2996
▁hgb	-12.2999
▁cooperate	-12.3001
rads	-12.3003
scant	-12.3004
▁1900-07002.	-12.3004
▁6.9	-12.3005
▁splinting	-12.3007
intracerebral	-12.3007
coccyx	-12.3007
▁chem	-12.3008
▁willcont	-12.3008
▁ou	-12.3011
▁hy	-12.3011
▁21-25%	-12.3012
▁>70	-12.3015
brief	-12.3017
lp	-12.3024
calcification	-12.3025
transfusion	-12.3025
atic	-12.3028
▁onsheepskin	-12.3028
▁[**3-10**]	-12.3028
▁59**]	-12.3032
closely	-12.3034
▁producing	-12.3036
▁timeout	-12.304
-112	-12.3042
▁definitive	-12.3044
ordered	-12.3046
▁margins	-12.3047
apt	-12.3048
spinous	-12.305
▁bad	-12.3052
pediatric	-12.3052
▁5/5.	-12.3054
▁rf	-12.3054
▁learn	-12.306
▁732**]	-12.3061
▁0900.	-12.3061
collapse	-12.3061
26.4	-12.3062
hearing	-12.3064
▁7.28	-12.3065
▁umbilicus	-12.3068
▁6.1	-12.3069
articular	-12.307
▁traction	-12.307
▁nocs	-12.3078
▁gall	-12.3078
-110'	-12.308
▁wbcs	-12.3082
▁travel	-12.3082
▁cg	-12.3087
mon	-12.309
▁allo	-12.3091
ntg	-12.3092
▁>92%.	-12.3092
▁sv	-12.3093
▁watching	-12.3093
▁bearing	-12.3094
▁hydralizine	-12.3095
contto	-12.3095
▁249**]	-12.3098
easily	-12.3099
▁[**3-5**]	-12.3099
▁ei	-12.3104
▁ventric	-12.3105
▁7.6	-12.3106
▁recordings	-12.3106
▁hernias	-12.3107
▁seeflowsheet	-12.3107
▁venti	-12.3107
▁[**3-14**]	-12.3108
twin	-12.3109
▁com	-12.3113
▁>60,	-12.312
▁94-100%	-12.3124
▁organomegaly	-12.3126
90'	-12.3126
comp	-12.3127
ny	-12.3131
tolerance	-12.3131
▁tg	-12.3135
▁kphos	-12.3138
however	-12.3143
improving	-12.3143
▁compazine	-12.3144
▁dophoff	-12.3144
140**]	-12.3149
▁40**]	-12.3153
▁40-60.	-12.3153
▁[**3-11**]	-12.3153
▁"62	-12.3157
▁ears	-12.3159
▁2/6	-12.316
▁prox	-12.3161
▁criticare	-12.3166
▁[**3-31**]	-12.3169
▁tapering	-12.317
▁analyzed	-12.3171
▁monophasic	-12.3171
▁[**2-23**]	-12.3171
▁92%.	-12.3173
▁mildsubcostal	-12.3175
▁decisions	-12.318
ze	-12.3181
vac	-12.3186
▁pairs	-12.3189
pvc	-12.319
peri	-12.3191
1000	-12.3191
▁thinks	-12.3193
dilaudid	-12.3197
▁151	-12.3198
▁wheelchair	-12.3198
▁special	-12.3199
▁>93%.	-12.3202
pacer	-12.3203
foot	-12.3206
fx	-12.3207
4/5	-12.3207
▁burr	-12.3207
▁totally	-12.3207
▁demerol	-12.3211
ese	-12.3211
pvd	-12.3212
▁[**3-8**]	-12.3217
▁.9	-12.3219
▁dizzy	-12.3222
▁[**12-23**]	-12.3226
▁mouths	-12.3226
▁urgent	-12.3233
▁soundly	-12.3234
coordinated	-12.3235
likely	-12.3236
concerns	-12.3239
15-20	-12.324
▁ease	-12.3242
▁diaphysis	-12.3244
▁djd	-12.3244
▁sch	-12.3245
▁7.47	-12.3249
▁apple	-12.325
▁21%,	-12.3252
▁nephrolithiasis	-12.3253
▁consciousness	-12.3253
▁mucosa	-12.3254
▁230	-12.3255
▁perineal	-12.3261
▁arenon	-12.3261
icardiocentesis	-12.3262
▁priest	-12.3262
▁[**2-19**]	-12.3262
▁(0700-1900)	-12.3262
▁maturity	-12.3263
=15	-12.3265
▁excoriation	-12.3266
spell	-12.3266
iu	-12.3267
1500	-12.3268
▁4:00	-12.3272
460**]	-12.3274
▁cribafof	-12.3275
▁10:15	-12.3275
▁140-180	-12.3278
▁discussing	-12.3278
▁allergic	-12.328
▁rotator	-12.328
▁[**12-19**]	-12.3281
▁[**4-3**]	-12.3281
occlusive	-12.3283
▁0.03	-12.3286
171**]	-12.3288
▁diaperchange	-12.3295
800	-12.3295
▁areclear	-12.3296
▁prec	-12.3296
▁50-75	-12.3298
▁stretcher	-12.3299
▁varying	-12.3299
▁24.5	-12.3306
▁elsewhere	-12.3308
▁pudding	-12.3308
▁18-22	-12.331
▁diminish	-12.3312
▁adding	-12.3312
▁student	-12.3313
ease	-12.3314
▁[**3-9**]	-12.3317
ub	-12.3318
/73	-12.3319
▁behaviors	-12.3321
▁purpose	-12.3322
▁98-100%,	-12.3322
ute	-12.3324
▁buck	-12.3324
ology	-12.3328
diagnosticchange	-12.333
▁gsw	-12.3334
▁elevate	-12.3335
▁convex	-12.3335
▁bridge	-12.3335
▁excess	-12.3335
▁seedy	-12.3336
3-3	-12.3336
▁obstructing	-12.3343
▁"53	-12.3343
rage	-12.3344
repositioning	-12.3347
rebreather	-12.3348
▁25-30%	-12.3348
▁supportdev	-12.3349
-108	-12.335
▁dced	-12.335
▁patterns	-12.335
▁[**2-20**]	-12.3354
2.9	-12.3354
-135	-12.3356
gas	-12.3357
▁spur	-12.3358
▁[**3-1**]	-12.3363
having	-12.3365
▁lock	-12.3367
▁citrate	-12.3372
▁[**3-3**]	-12.3373
▁6.25	-12.3374
▁98.1	-12.3376
▁osmo	-12.3377
ging	-12.3379
▁firmly	-12.338
▁calcaneus	-12.3381
▁422**]	-12.3381
▁8/5	-12.3382
▁erosion	-12.3383
our	-12.3389
▁hypoglycemic	-12.339
▁swabs	-12.3395
provide	-12.3395
▁mastectomy	-12.34
▁9:00	-12.3402
▁reminders	-12.3402
▁950	-12.3402
▁crash	-12.3404
▁oint	-12.3405
▁patella	-12.3405
▁pleura	-12.3406
▁seated	-12.3406
▁[**12-18**]	-12.3409
▁97.6	-12.3411
▁ibuprofen	-12.3413
▁97-99%.	-12.3413
bbs	-12.3414
▁hyperoxia	-12.3414
▁aerobic	-12.3418
ria	-12.3419
▁accuracy	-12.3425
▁snp	-12.3427
0.0	-12.343
remainder	-12.343
-0700	-12.3431
dstick	-12.3433
-93	-12.3435
▁hmf	-12.3437
▁"61	-12.3437
radial	-12.3438
67	-12.3444
▁coil	-12.3446
▁scanning	-12.3449
▁"67	-12.3451
/100%	-12.3452
▁bumper	-12.3455
▁licsw	-12.3455
▁101.	-12.3455
▁92-95%	-12.3456
▁intraabdominal	-12.3458
=23	-12.3463
▁legal	-12.3464
▁93%.	-12.3466
▁mwf	-12.3469
▁90-130	-12.347
▁90**]	-12.3471
▁kyphosis	-12.3474
▁isolation	-12.3474
/40-50	-12.348
nkg	-12.3483
▁longstanding	-12.3484
2.7	-12.3484
▁abdexam	-12.3485
▁233**]	-12.3487
▁coughed	-12.3489
▁dvts	-12.3489
mat	-12.3489
▁[**3-23**]	-12.3493
▁lobar	-12.3493
labile	-12.3495
seal	-12.3498
ient	-12.3501
▁stranding	-12.3502
▁disturbed	-12.3503
rpr	-12.3509
▁imp	-12.351
▁dehiscence	-12.3511
▁articular	-12.3513
▁218**]	-12.3513
1.3	-12.3514
4.9	-12.3518
▁definitely	-12.352
▁dt	-12.352
=12	-12.3524
▁abdomenbenign	-12.3531
▁subpulmonic	-12.3531
-300	-12.3536
▁.7	-12.3539
▁manipulation	-12.3539
psy	-12.354
450	-12.3543
▁gagging	-12.3545
=11	-12.355
jp	-12.3555
dic	-12.356
ang	-12.3565
▁tags	-12.3566
▁rtc	-12.3566
-97	-12.3567
▁94-97%	-12.3567
▁upto	-12.3568
0.4	-12.3569
ining	-12.3569
▁haze	-12.3569
▁paf	-12.3573
▁xeroform	-12.3573
▁tea	-12.3576
kangaroo	-12.3577
▁bronchovascular	-12.3577
▁breathes	-12.3578
▁awaken	-12.3578
stablep	-12.3582
tal	-12.3584
▁vvi	-12.3585
▁occass	-12.3589
▁soundsext	-12.359
▁infuse	-12.3593
▁1:2	-12.3594
▁tran	-12.3595
▁typical	-12.3596
diuresis	-12.3598
dyspnea	-12.3598
▁accumulation	-12.3599
▁desatted	-12.3599
▁stir	-12.3603
consult	-12.3605
2/7	-12.3606
▁risbi	-12.3607
▁convert	-12.3608
▁pleurodesis	-12.3609
▁derm	-12.3611
40-70	-12.3613
▁mum	-12.3618
▁couplets	-12.362
▁90-110'	-12.3622
obstipation	-12.3624
would	-12.3626
▁478**]	-12.363
inter	-12.363
▁157	-12.3632
▁teary	-12.3634
▁30.5	-12.3639
pacemaker	-12.3645
grasp	-12.3648
▁seeing	-12.3652
rash	-12.3652
▁averaging	-12.3653
▁ascitic	-12.3653
▁dependant	-12.3654
▁abscesses	-12.366
▁ti	-12.3661
brother	-12.3665
▁occasion	-12.3666
▁neuron	-12.3667
▁dopplers	-12.3671
▁disk	-12.3674
770**]	-12.3675
0**],[**	-12.3676
▁nuero	-12.3677
▁[**2-25**]	-12.3679
▁dural	-12.3681
▁ronchi	-12.3681
▁burning	-12.3685
light	-12.3688
▁ptca	-12.3688
osa	-12.369
▁banana	-12.3691
▁circuit	-12.3691
ked	-12.3692
▁571**]	-12.3692
-100%.	-12.3695
▁spacer	-12.3698
▁97.5	-12.3699
▁100.0	-12.3699
▁orthostatic	-12.37
▁imi	-12.3702
past	-12.3707
▁spondylosis	-12.371
▁[**1-14**]	-12.3711
-1/7	-12.3716
plantar	-12.3716
▁binkie	-12.3718
▁conductiondelay	-12.3719
iabp	-12.3726
▁tremulous	-12.3729
▁feelings	-12.373
oy	-12.3732
men	-12.3736
scheduled	-12.3739
teaching	-12.3741
▁weeker	-12.3741
stools	-12.3748
-104	-12.375
correction	-12.3751
▁blow	-12.3758
684**]	-12.3758
▁pheresis	-12.3759
▁persistence	-12.3759
▁vicu	-12.3761
▁fragile	-12.3763
▁23/6	-12.3764
▁flaccid	-12.3767
▁94-98%.	-12.3772
▁dexamethasone	-12.3773
=17	-12.3774
dsg	-12.3774
▁plane	-12.3776
▁dfdkq	-12.3777
▁localizing	-12.3777
▁conducted	-12.3778
healing	-12.3784
▁afsof	-12.3784
▁compressible	-12.3785
▁nippv	-12.3786
positioned	-12.3787
▁89-	-12.3787
▁spray	-12.3788
▁rating	-12.3788
▁80-110	-12.3789
▁log	-12.3791
meter	-12.3791
▁notephysical	-12.3794
▁schizophrenia	-12.3796
▁[**2-21**]	-12.3796
▁claudication	-12.3799
▁exaggerated	-12.38
▁broncho	-12.38
▁0.02	-12.3803
though	-12.3808
-82	-12.3809
▁parkinson	-12.381
▁homogeneous	-12.3815
▁jps	-12.3816
nkda	-12.3819
mdi	-12.382
▁architectural	-12.3825
▁irritation	-12.3825
▁399.	-12.3825
▁dome	-12.3829
▁fbs	-12.3829
technically	-12.3831
▁dimension	-12.3833
▁marker	-12.3834
iron	-12.3837
▁46-	-12.3838
additional	-12.3839
▁pes	-12.3841
▁married	-12.3842
▁understood	-12.3844
▁5/5,	-12.3845
▁clustercares	-12.3846
localization	-12.3848
tent	-12.3849
▁carefacility	-12.385
436**]	-12.3851
▁aquacel	-12.3851
▁gavaging	-12.3852
▁airskin	-12.3859
▁resistance	-12.3864
▁tech	-12.3865
symptoms	-12.3867
coping	-12.3868
▁protective	-12.3875
extubate	-12.3878
persist	-12.3882
▁[**2-18**]	-12.3883
▁[**12-5**]	-12.3884
▁cycled	-12.389
pan	-12.389
▁99-100	-12.389
calc	-12.3894
▁terminal	-12.3894
were	-12.3897
▁37**]-	-12.3899
▁ureter	-12.39
▁97.9	-12.39
▁dataneuro	-12.39
▁separate	-12.3902
-66	-12.3905
tive	-12.3907
simv	-12.3908
▁isvoiding	-12.3908
attempting	-12.3911
▁diverticulosis	-12.3912
▁security	-12.3912
▁3:00	-12.3915
▁toprovide	-12.3915
pedal	-12.3921
▁carvue	-12.3922
▁95-99%.	-12.3925
requirement	-12.3926
▁hmd	-12.3927
ssri	-12.3927
pager	-12.3928
ime	-12.3932
▁superven	-12.3932
▁ache	-12.3934
syringe	-12.3936
copious	-12.3936
▁[**12-20**]	-12.3942
▁dec	-12.3942
▁[**4-7**]	-12.3942
reflux	-12.3945
▁codeine	-12.3948
▁86%	-12.3952
▁vomit	-12.3952
▁sequela	-12.3959
▁propfol	-12.3961
clot	-12.3962
▁sphincterotomy	-12.3964
.#2-	-12.3969
▁98.3	-12.397
▁mmol	-12.397
2=	-12.3971
▁release	-12.3972
▁uri	-12.3976
wires	-12.3979
▁235**]	-12.3981
▁[**3-25**]	-12.3981
▁enf	-12.3983
ascites	-12.3985
▁sideport	-12.3987
574**]	-12.3987
updates	-12.3987
▁23.5	-12.3989
▁appreciably	-12.3991
▁persisting	-12.3991
▁planto	-12.3993
▁pedis	-12.3998
▁interlock	-12.4001
▁pet	-12.4001
cranial	-12.4004
▁meal	-12.4006
▁examgen	-12.4006
▁mildic	-12.4007
▁reinforcement	-12.4011
consent	-12.4015
▁exc	-12.4016
wwp	-12.4018
▁repeatedly	-12.4021
▁breasts	-12.4021
▁dht	-12.4027
▁infantis	-12.4028
▁custard	-12.403
01	-12.4031
384**]	-12.4034
▁immunization	-12.4039
▁ulceration	-12.404
▁intoxication	-12.404
▁tubular	-12.404
▁ntnd	-12.4046
▁7.48	-12.4048
▁70-100	-12.4053
▁8-12	-12.4056
▁daysalt	-12.4056
ix	-12.4057
▁cholangiogram	-12.406
▁10:45	-12.4061
yn	-12.4065
▁53**]	-12.4067
▁betadine	-12.4069
▁hopeful	-12.4071
▁touched	-12.4073
▁sheets	-12.4079
▁[**12-21**]	-12.408
isis	-12.4081
540**]	-12.4082
-31	-12.4085
▁150-170'	-12.4085
32/	-12.4094
▁suprapubic	-12.4099
▁mal	-12.4103
368**]	-12.4105
▁notepenested	-12.411
mass	-12.411
▁ccy	-12.4112
▁168	-12.4113
ler	-12.4116
▁ev	-12.4118
cholesterolemia	-12.4119
▁infrequently	-12.4124
sustained	-12.4124
▁sh	-12.4126
▁9.5	-12.4127
▁meantime	-12.4127
▁heavily	-12.4129
▁gastrectomy	-12.4131
=5	-12.4131
▁ventilate	-12.4131
az	-12.4133
ade	-12.4133
▁8:00	-12.4133
cirrhosis	-12.4135
▁backup	-12.4136
▁localization	-12.4136
▁vasopressors	-12.4137
order	-12.4139
▁conversing	-12.4139
recons	-12.4147
▁31.5	-12.4147
▁95-96%	-12.415
▁pureed	-12.4152
once	-12.4152
secondary	-12.4155
anemia	-12.4157
▁133**]	-12.4159
1700	-12.4162
glucose	-12.4162
▁wash	-12.4164
uneventful	-12.4165
anxious	-12.4165
▁toflowsheet	-12.4165
▁mat	-12.4168
▁suckson	-12.4169
pneumothorax	-12.4169
▁nonverbal	-12.4169
you	-12.4169
▁subtotal	-12.4169
▁54.4	-12.4181
mra	-12.4182
ver	-12.4183
responsive	-12.4183
▁pat	-12.4184
▁components	-12.4185
▁antecub	-12.4188
▁95-100	-12.4188
tertrochanteric	-12.4189
▁sincethe	-12.4189
▁bedtime	-12.4195
▁molding	-12.4197
▁110-120'	-12.4197
▁preservation	-12.4199
▁hemovac	-12.4199
▁mis	-12.42
▁lscl	-12.4202
▁assumed	-12.4204
5/5	-12.4207
amber	-12.4208
▁[**12-6**]	-12.4209
▁[**12-9**]	-12.4209
oon	-12.4211
▁bythis	-12.4217
▁[**4-29**]	-12.4217
absent	-12.4217
▁esoph	-12.4217
▁noise	-12.4218
based	-12.4219
▁decompressed	-12.422
▁respo	-12.4222
-92	-12.4224
▁denying	-12.4231
▁redressed	-12.4232
=13	-12.4235
▁granular	-12.4239
▁appropiate	-12.424
enc	-12.4244
positioning	-12.4245
shaped	-12.4245
▁[**3-24**]	-12.425
▁tingling	-12.4251
▁uprbc	-12.4251
079**]	-12.4252
▁picked	-12.4253
▁broke	-12.4257
maxillofacial	-12.4259
▁vits	-12.426
▁deminished	-12.426
▁60**]	-12.4262
940**]	-12.4263
calcifications	-12.4266
plt	-12.4268
▁wanes	-12.4272
▁progressresp	-12.4273
▁tobramycin	-12.4274
250	-12.4275
▁coma	-12.4275
▁[**12-7**]	-12.428
▁issoft	-12.4286
ky	-12.4288
▁[**4-13**]	-12.429
398**]	-12.4291
▁0.04	-12.4291
iton	-12.4291
▁cvs	-12.4291
▁resid	-12.4292
phone	-12.4295
replete	-12.4298
ult	-12.4299
▁210	-12.43
▁298**]	-12.4301
angio	-12.4302
▁mitralvalve	-12.4303
bottles	-12.4304
▁ivig	-12.4304
▁"83	-12.4306
▁palmar	-12.4306
▁trochanter	-12.431
▁llsb	-12.431
▁ddd	-12.4313
▁cefotaxime	-12.4315
pyelonephritis	-12.4317
cancer	-12.4317
▁10-12	-12.432
▁11:15	-12.4321
▁mucoid	-12.4322
▁breastfeeds	-12.4323
restart	-12.4326
▁470**]	-12.4328
iated	-12.433
▁emptying	-12.4333
cyst	-12.4334
▁venodynes	-12.4334
▁reexpansion	-12.4334
▁dialyzed	-12.4334
▁2000	-12.4335
▁flight	-12.4337
▁target	-12.4338
▁bruise	-12.4338
▁[**4-1**]	-12.4341
incisions	-12.4343
+5	-12.4343
▁gestures	-12.4344
▁taught	-12.4345
lethargic	-12.4347
176**]	-12.4348
▁5:00	-12.435
▁pfr	-12.4354
▁56.7	-12.4356
▁10:20	-12.436
▁[**4-5**]	-12.4361
updateo	-12.4362
▁fob	-12.4363
▁500-600	-12.4363
▁cavitary	-12.4364
visit	-12.4364
▁[**11-21**]	-12.4369
▁parentingmom	-12.437
▁[**12-10**]	-12.4371
▁samples	-12.4372
=26	-12.4372
swith	-12.4375
▁occur	-12.4377
▁akinesis	-12.4379
parental	-12.438
6.0	-12.4382
▁leaks	-12.4383
▁"74	-12.4384
=30-60	-12.4386
▁15-30	-12.4388
▁70**]	-12.4393
svo	-12.4393
▁91**]	-12.4393
▁>55	-12.4393
▁offering	-12.4395
thing	-12.4396
▁qod	-12.4396
occipital	-12.4396
▁currentfeeding	-12.4397
fat	-12.4397
367**]	-12.4399
▁pointing	-12.4403
▁fee	-12.4404
=19	-12.4406
640**]	-12.4406
▁bags	-12.4407
>2.	-12.4407
▁sluggishly	-12.441
▁244**]	-12.4411
▁myelogeno	-12.4412
5.6	-12.4413
480**]	-12.4415
▁7.7	-12.4415
▁isnormal	-12.4415
▁0.01	-12.4416
(+),	-12.4418
signed	-12.4421
▁239**]	-12.4422
▁sclera	-12.4425
▁thisevening	-12.4426
▁"2.	-12.4426
hem	-12.4426
cing	-12.4427
68	-12.4427
▁integrilin	-12.4432
▁malformation	-12.4432
lle	-12.4433
▁[**4-2**]	-12.4433
voided	-12.4433
▁ulcerative	-12.4433
▁older	-12.4434
▁**]=	-12.4437
▁213**]	-12.4438
▁foam	-12.4439
▁20-60	-12.4442
▁antepartum	-12.4442
▁fascicularblock	-12.4443
-58	-12.4443
4.3	-12.4445
9-12	-12.4447
ischemic	-12.445
▁ofinfection	-12.4451
▁oxycontin	-12.4453
-97%	-12.4458
▁isoletteafof	-12.4459
▁337**]	-12.4459
▁heterotopi	-12.4463
▁periorbital	-12.4463
▁[**3-19**]	-12.4464
▁206**]	-12.4464
▁9:15	-12.4464
▁orbit	-12.4465
▁nutr	-12.4467
▁7.8	-12.4469
.#6.	-12.447
flex	-12.447
▁percent	-12.4476
▁glands	-12.4483
▁65%	-12.4485
▁34**]-	-12.4488
▁47-	-12.449
drawn	-12.4492
checked	-12.4493
▁sarna	-12.4494
▁pituitary	-12.4497
etic	-12.4499
>95%	-12.45
▁pancytopenia	-12.4504
▁sentences	-12.4504
4.7	-12.4505
iopharmaceutical	-12.4505
▁140-150'	-12.4508
ions	-12.4513
▁unwitnessed	-12.4515
▁vfib	-12.4515
▁[**3-20**]	-12.4515
▁164	-12.4517
▁14-20	-12.4518
-86	-12.4518
▁18/6	-12.4522
▁intermittant	-12.4523
▁portacath	-12.4524
▁playtex	-12.4525
▁1481**]	-12.4527
▁"82	-12.4527
▁attendingcont	-12.4527
-116	-12.4532
▁23**]	-12.4533
diuresing	-12.4533
pancreas	-12.4533
▁35%.	-12.4534
346**]	-12.4536
▁sidehole	-12.4536
▁happened	-12.4537
/=;	-12.4538
▁130-140'	-12.4542
▁[**3-22**]	-12.4546
&=	-12.4547
▁repo	-12.4548
needle	-12.4554
▁thistime	-12.4555
▁cessation	-12.4556
▁trisomy	-12.4556
▁[**12-2**]	-12.4557
▁pontine	-12.4557
lic	-12.4557
pneumo	-12.4557
occas	-12.4561
ret	-12.4565
▁vertebrae	-12.4568
▁questioning	-12.4569
▁21-30%	-12.4569
catheter	-12.4569
▁interatrial	-12.4576
▁308**]	-12.4577
▁produce	-12.4579
▁updatedata	-12.4581
▁"52	-12.4582
▁[**12-3**]	-12.4584
26.8	-12.4589
▁340.	-12.4594
▁lupus	-12.4598
▁123**]	-12.4598
▁sequence	-12.46
▁oxygenating	-12.46
▁indomethacin	-12.4602
▁97.7	-12.4604
▁erythro	-12.4604
▁spasms	-12.4605
▁repleat	-12.4608
7.3	-12.4608
▁circle	-12.461
5/7	-12.4611
196**]	-12.4612
▁phosphate	-12.4613
▁18/5,	-12.4615
▁"84	-12.4617
sof	-12.4618
▁monitorresp	-12.4619
▁occult	-12.462
1800	-12.462
▁futher	-12.4621
▁98-100	-12.4622
▁genetics	-12.4622
▁remarks	-12.4629
▁hsv	-12.463
▁moniotr	-12.4634
▁rythm	-12.4637
much	-12.4638
▁94-95%	-12.464
▁aff	-12.464
displaced	-12.4643
▁huge	-12.4651
fem	-12.4652
▁conc	-12.4655
▁"69	-12.466
-145	-12.4662
▁regards	-12.4663
▁resuscitated	-12.4664
lr	-12.4667
▁fxn	-12.4667
▁architecture	-12.4671
▁strengths	-12.4672
35.6	-12.4676
▁80-100'	-12.4676
▁demanding	-12.4677
▁grounds	-12.4678
▁spin	-12.468
emotional	-12.468
▁repleting	-12.4682
▁sle	-12.4682
▁involutiona	-12.4683
bradys	-12.4683
prominent	-12.4684
advanced	-12.4688
▁cataract	-12.469
733**]	-12.4691
svg	-12.4691
fall	-12.4699
▁empiric	-12.4701
▁respect	-12.4703
▁[**5-10**]	-12.4703
▁271**]	-12.4704
▁657**]	-12.4705
-102	-12.4705
▁dead	-12.4706
▁102**]	-12.4708
▁-1	-12.4709
▁inlead	-12.4709
▁speaker	-12.471
▁[2+]	-12.4713
▁cholecystostomy	-12.4713
▁maximal	-12.4714
▁1050	-12.4716
▁"75	-12.4717
ld	-12.4722
▁.02	-12.4723
▁lbbb	-12.4724
▁chordae	-12.4724
▁pfsf	-12.4724
▁translator	-12.4724
▁luq	-12.4724
▁partner	-12.4724
580**]	-12.4725
dx	-12.4728
▁"55	-12.4733
▁reserve	-12.4734
▁hyperintensity	-12.4734
394**]	-12.4735
▁[**11-27**]	-12.4735
▁femaleext	-12.4736
▁empty	-12.4738
devtemp	-12.4738
▁tends	-12.4738
▁fractured	-12.4738
▁lysis	-12.4739
7.2	-12.4741
▁tracheomalacia	-12.4742
▁nursed	-12.4742
595**]	-12.4744
bringing	-12.4744
beneprotein	-12.4744
▁hespan	-12.4745
▁fl	-12.4745
▁parts	-12.4746
▁express	-12.4747
clock	-12.4747
=16	-12.475
434**]	-12.4754
▁.04	-12.4755
▁worst	-12.4756
▁scab	-12.4756
▁uncal	-12.4758
lin	-12.476
svr	-12.4762
▁cardiothoracic	-12.4766
sleep	-12.4767
▁[**5-16**]	-12.4767
-84	-12.4769
pped	-12.4771
albuterol	-12.4776
▁heplocked	-12.4776
▁92-97%	-12.4777
▁[**4-18**]	-12.4777
▁[**4-6**]	-12.4777
▁bar	-12.4779
096**]	-12.4783
▁substance	-12.4784
▁beeper	-12.4787
▁225**]	-12.4787
▁squeezes	-12.4788
▁hasbeen	-12.4791
ule	-12.4791
▁25/6	-12.4791
▁90-120'	-12.4792
▁"64	-12.4794
sacral	-12.4794
cva	-12.4796
▁transvaginal	-12.4798
669**]	-12.4801
▁500'	-12.4803
▁lungsclear	-12.4808
▁jittery	-12.4808
▁blind	-12.4808
▁extrasystoles	-12.4809
▁bumex	-12.4809
▁occational	-12.4814
hernia	-12.4816
ele	-12.4816
ering	-12.4817
(-).	-12.4818
rsr	-12.4818
▁nml	-12.4819
▁dipping	-12.4819
▁9:45	-12.482
▁cage	-12.4822
stated	-12.4824
▁44-	-12.4824
▁spasm	-12.4825
>95%.	-12.4827
▁[**11-25**]	-12.4827
▁0300.	-12.4828
▁bph	-12.4828
audible	-12.483
-74	-12.483
▁39**]	-12.483
▁repos	-12.4832
=28	-12.4832
896**]	-12.4833
▁verapamil	-12.4833
▁specificsneuro	-12.4839
▁foods	-12.4839
water	-12.4845
▁bneign	-12.4851
▁valuables	-12.4851
▁weepy	-12.4852
▁>40	-12.4854
▁mibi	-12.4854
▁formal	-12.4857
▁fissures	-12.4857
▁devtemp	-12.4859
▁[**4-16**]	-12.4863
▁helping	-12.4865
▁ec	-12.4874
sw	-12.4875
▁sed	-12.4875
▁asc	-12.488
▁lc	-12.4883
▁falx	-12.4883
-101	-12.4884
▁[**3-27**]	-12.4884
▁aka	-12.4885
mgm	-12.4888
36.8	-12.4889
▁pips	-12.4889
▁asystolic	-12.489
▁knowledge	-12.489
▁10.5	-12.4891
▁les	-12.4893
▁challenge	-12.4894
▁[**4-15**]	-12.4895
▁physiology	-12.49
▁105**]	-12.4901
▁protamine	-12.4905
▁oxide	-12.4905
▁[**12-8**]	-12.4906
678**]	-12.4907
▁rotating	-12.4916
▁accelerated	-12.4916
subdural	-12.4916
▁[**11-30**]	-12.4916
str	-12.4917
4.6	-12.492
▁"0700-1900	-12.4921
▁supplemented	-12.4922
endoc	-12.4922
▁gadolin	-12.4926
▁cytology	-12.4926
▁[**4-8**]	-12.4927
▁2:00	-12.4928
▁mandibular	-12.4936
▁conspicuous	-12.4937
▁[**3-26**]	-12.4938
▁[**4-10**]	-12.4938
neosure	-12.4938
▁notereview	-12.4939
▁dips	-12.4941
▁1845	-12.4942
▁"58	-12.4946
swan	-12.4947
/27/	-12.4947
▁availability	-12.4948
remain	-12.4949
swt	-12.495
▁sleeves	-12.495
▁gj	-12.4954
fp	-12.4956
▁tooth	-12.4957
eat	-12.4959
▁demineralized	-12.4959
▁volvulus	-12.4959
▁asks	-12.496
ier	-12.4963
limb	-12.4969
▁"79	-12.497
▁"1900-0730	-12.497
▁triadyne	-12.497
venous	-12.497
evidence	-12.4971
▁reinserted	-12.4971
▁1150	-12.4973
▁describes	-12.4973
/50-60'	-12.4975
▁aberrant	-12.4977
▁monitorclosely	-12.4978
▁polyp	-12.4979
▁yankeur	-12.4981
gauge	-12.4981
▁cousin	-12.4982
479**]	-12.4986
▁sug	-12.4987
=50	-12.4989
▁lucent	-12.4991
▁[**5-4**]	-12.4992
▁prompting	-12.4993
strips	-12.4996
▁ceftazidime	-12.4998
▁hypovolemia	-12.5
repleted	-12.5002
100**]	-12.5002
860**]	-12.5003
▁[**4-12**]	-12.5003
▁cef	-12.5006
titrate	-12.5008
▁#22	-12.501
▁aspects	-12.5011
73	-12.5012
▁pulls	-12.5013
▁[**12-12**]	-12.5014
▁[**3-29**]	-12.5014
▁[**4-17**]	-12.5014
▁[**4-21**]	-12.5014
▁obj	-12.5016
461**]	-12.5017
flu	-12.5018
965**]	-12.5021
▁10%	-12.5023
▁retrograde	-12.5024
▁11:45	-12.5024
inf	-12.5026
850**]	-12.5028
huo	-12.5029
▁radical	-12.5029
▁noretractions	-12.5031
leak	-12.5032
▁dtv	-12.5033
▁golytely	-12.5035
▁92-94%	-12.5036
awith	-12.5037
146**]	-12.5039
▁feedingplan	-12.5042
suggest	-12.5044
tissue	-12.5047
▁[**4-11**]	-12.5047
-67	-12.5049
planning	-12.505
1.1	-12.5051
fusion	-12.5058
66	-12.5059
▁cerebrovascular	-12.5073
:34	-12.5079
▁official	-12.5079
▁everything	-12.5079
▁430**]	-12.5082
▁"65	-12.5085
ified	-12.5089
▁159	-12.5089
ready	-12.5089
▁ionic	-12.509
▁finish	-12.5091
remained	-12.5094
▁pitressin	-12.5096
▁likespacifier	-12.5101
▁[**4-9**]	-12.5101
▁prefers	-12.5102
greater	-12.5102
▁nondiagnostic	-12.5107
067**]	-12.5109
▁hypoattenuation	-12.5112
▁nonreactive	-12.5112
just	-12.5112
transfused	-12.5112
question	-12.5116
oscopy	-12.5118
suction	-12.5121
maternal	-12.5124
652**]	-12.5126
▁grand	-12.513
▁plexus	-12.5133
▁lusb	-12.5134
▁soap	-12.5134
▁capturing	-12.5134
▁intermittantly	-12.5135
ise	-12.5136
186**]	-12.5137
nontender	-12.5138
-35%	-12.514
stim	-12.514
-114	-12.5141
restless	-12.5147
perl	-12.5147
weeks	-12.5147
▁thisam	-12.5148
▁wears	-12.5148
▁moreprominent	-12.5149
▁handles	-12.515
▁lowest	-12.5151
▁10:40	-12.5152
1900	-12.5152
▁[**5-2**]	-12.5156
▁55-60	-12.516
▁201**]	-12.516
042**]	-12.516
5.5	-12.5166
▁[**11-18**]	-12.5167
▁static	-12.5167
serial	-12.517
576**]	-12.5172
dtemp	-12.5173
▁spellshr	-12.5173
atro	-12.5174
▁translate	-12.5175
▁dsats	-12.5177
▁escape	-12.5178
▁hanging	-12.5179
▁130-160'	-12.518
▁encephalitis	-12.5182
▁concentration	-12.5183
278**]	-12.5184
▁terminated	-12.5185
▁crea	-12.5185
▁lighten	-12.5186
▁emptied	-12.5189
▁obtunded	-12.5189
▁ordesats	-12.5189
070**]	-12.519
offer	-12.5191
interested	-12.5191
152**]	-12.5194
▁relax	-12.5198
▁[**12-14**]	-12.5201
▁packet	-12.5202
539**]	-12.5206
089**]	-12.5209
-106	-12.521
484**]	-12.5211
475**]	-12.5211
▁wrists	-12.5214
ture	-12.5217
#2-	-12.5218
iz	-12.5221
▁plates	-12.5222
▁503**]	-12.5225
▁defer	-12.5226
▁spouse	-12.5227
▁gastritis	-12.5227
▁syringe	-12.5228
▁localize	-12.523
▁complain	-12.5232
▁thermodilution	-12.5233
▁parking	-12.5233
▁perioste	-12.5233
try	-12.5233
▁vaso	-12.5234
569**]	-12.5235
▁calc	-12.5235
▁smile	-12.5235
749**]	-12.5236
▁"68	-12.5236
778**]	-12.5238
455**]	-12.524
▁2200,	-12.5241
590**]	-12.5241
597**]	-12.5241
▁alzheimer	-12.5244
▁[**4-22**]	-12.5245
▁[**4-14**]	-12.5245
▁[**4-30**]	-12.5245
▁plasma	-12.5245
40'	-12.5248
slow	-12.5249
dislocation	-12.5249
▁planes	-12.525
▁sur	-12.5251
mag	-12.5251
▁functiono	-12.5252
mso	-12.5253
▁pns	-12.5254
ense	-12.5255
▁flattened	-12.5255
▁[**5-1**]	-12.5256
▁npns	-12.5256
▁infero	-12.5257
▁227**]	-12.5257
▁svd	-12.5258
hip	-12.526
assist	-12.5261
let	-12.5261
▁rtx	-12.5263
cept	-12.5264
bil	-12.5266
▁tarry	-12.5267
▁(+30)	-12.5267
40-50'	-12.5271
icd	-12.5274
▁outline	-12.5276
▁curvilinear	-12.5278
▁stabilization	-12.5278
047**]	-12.528
ces	-12.5282
▁"57	-12.5287
olangiocarcinoma	-12.5287
stress	-12.5288
▁"#2	-12.5289
▁[**3-30**]	-12.5289
793**]	-12.529
▁>90.	-12.5291
blanket	-12.5292
inal	-12.5292
▁soaks	-12.5294
▁35-40	-12.5294
0.5-1	-12.5296
▁interact	-12.5299
966**]	-12.53
▁"54	-12.53
▁[**11-22**]	-12.53
▁[**12-11**]	-12.5301
▁[**4-25**]	-12.5301
▁[**4-27**]	-12.5301
rum	-12.5302
450**]	-12.5302
045**]	-12.5304
532**]	-12.5306
▁cephalad	-12.5311
▁boyfriend	-12.5311
▁[**4-23**]	-12.5312
pls	-12.5313
▁soundsclear	-12.5314
rhonchi	-12.5314
▁echocardiogram	-12.5318
170**]	-12.5318
▁[**11-24**]	-12.5319
▁thirst	-12.532
▁malnutrition	-12.5323
▁[**5-11**]	-12.5323
▁overlap	-12.5326
▁coli	-12.5328
holding	-12.533
gest	-12.533
▁[**4-28**]	-12.5334
▁malacia	-12.5335
.#6-	-12.5338
882**]	-12.5339
359**]	-12.534
sgl	-12.5344
nes	-12.5345
▁artifacts	-12.5349
▁12-20	-12.535
168**]	-12.5352
▁eu	-12.5355
▁crystalloid	-12.5356
▁interlobar	-12.5356
▁bulge	-12.5356
174**]	-12.5356
▁58**]	-12.5357
firm	-12.5361
▁166	-12.5361
▁calming	-12.5363
space	-12.5365
rous	-12.5365
yof	-12.5365
▁radio	-12.5367
▁private	-12.5367
▁ossification	-12.5367
842**]	-12.5369
approx	-12.5371
concerned	-12.5372
89.6	-12.5372
likes	-12.5373
▁tbm	-12.5373
▁option	-12.5375
088**]	-12.5376
▁xanax	-12.5379
▁readily	-12.538
=27	-12.538
▁95-97%.	-12.5383
▁bsx	-12.5384
▁vis	-12.5384
▁streak	-12.5389
▁narcotic	-12.539
▁suprasellar	-12.539
ntonight	-12.5391
▁8:45	-12.5391
084**]	-12.5392
pad	-12.5392
534**]	-12.5392
servo	-12.5394
▁102.2	-12.5395
▁[**10-23**]	-12.5396
▁banding	-12.5396
▁remainson	-12.5397
550**]	-12.5399
3.1	-12.5399
▁stood	-12.5401
▁[**11-28**]	-12.5402
▁[**12-15**]	-12.5402
▁>2.	-12.5402
▁agonal	-12.5403
▁mrcp	-12.5403
942**]	-12.5403
▁portably	-12.5403
▁40-50%	-12.5408
▁intrathecal	-12.5413
tab	-12.5416
treatment	-12.5417
▁osteoporosis	-12.5418
700**]	-12.5418
21%	-12.5422
▁oftamponade	-12.5422
▁phasicity	-12.5424
▁[**5-19**]	-12.5425
▁[**4-4**]	-12.5425
▁11:20	-12.5426
prolongation	-12.5428
179**]	-12.5428
.3)	-12.5431
▁andinvolved	-12.5434
▁inconsistantly	-12.5436
await	-12.5436
6.5	-12.5438
▁sequelae	-12.5438
hbsag	-12.5439
▁nodal	-12.5441
▁>100.	-12.5446
ably	-12.5448
-63	-12.5448
▁10:35	-12.5449
594**]	-12.5452
▁adenoma	-12.5453
pping	-12.5455
tory	-12.5459
282**]	-12.546
=>	-12.546
78	-12.546
▁approaching	-12.5465
mics	-12.5467
▁infections	-12.5468
▁vicodin	-12.5469
▁undigested	-12.5469
▁[**5-8**]	-12.547
▁185	-12.547
▁[**4-19**]	-12.547
198**]	-12.547
498**]	-12.5472
▁67.1	-12.5473
642**]	-12.5475
▁75%	-12.5475
496**]	-12.5476
▁(+25)	-12.5479
icretractions	-12.548
▁epistaxis	-12.5481
▁bell	-12.5486
283**]	-12.5486
▁qdiaper	-12.5487
▁10:10	-12.5487
5%	-12.5488
372**]	-12.549
▁parentingno	-12.5492
dof	-12.5493
▁9:20	-12.5495
190**]	-12.5497
561**]	-12.5501
▁nonionic	-12.5503
▁tentorium	-12.5503
▁[**5-23**]	-12.5504
▁10:05	-12.5504
▁deliver	-12.5505
▁19/6	-12.5506
calm	-12.5506
▁capped	-12.5506
▁97-98%	-12.5507
erate	-12.5508
▁starter	-12.5509
purposeful	-12.5512
sive	-12.5512
▁99.0	-12.5513
▁traversing	-12.5515
738**]	-12.5519
ties	-12.552
▁10:25	-12.552
subc	-12.5521
▁1:00	-12.5522
090**]	-12.5524
coordination	-12.5525
447**]	-12.5526
▁roughly	-12.5526
▁occiput	-12.5526
▁grey	-12.5527
▁[**5-12**]	-12.5527
▁3:45	-12.553
▁300-400	-12.553
▁hasincreased	-12.553
mec	-12.5531
934**]	-12.5531
▁worsen	-12.5532
▁rhythmpossible	-12.5532
▁30-40%	-12.5533
▁pcxr	-12.5535
2.3	-12.5535
▁rpe	-12.5536
▁bronchodilator	-12.5537
shirt	-12.5537
▁famotidine	-12.5538
▁quantity	-12.5538
▁transaminitis	-12.5538
▁[**12-17**]	-12.5538
▁+10	-12.5539
69	-12.554
▁dislodged	-12.554
▁semiupright	-12.5542
▁heent	-12.5543
▁"78	-12.5544
taken	-12.5545
▁notethis	-12.5546
▁229**]	-12.5547
▁#4.	-12.5548
▁hoping	-12.5549
▁sga	-12.5551
uring	-12.5552
hips	-12.5552
635**]	-12.5554
▁developm	-12.5556
▁sib	-12.5556
▁pleth	-12.5557
▁instrument	-12.556
287**]	-12.5561
▁[**11-26**]	-12.5561
bsext	-12.5561
-76	-12.5567
service	-12.5569
▁thisrn	-12.5571
ric	-12.5572
▁"0700-	-12.5572
fully	-12.5574
vers	-12.5578
..??	-12.5582
586**]	-12.5584
▁[**11-19**]	-12.5584
▁scapular	-12.5595
▁phenobarbital	-12.5595
140.	-12.5597
941**]	-12.5599
▁markers	-12.5601
▁questioned	-12.5602
▁pins	-12.5602
glc	-12.5603
pattern	-12.5603
443**]	-12.5604
063**]	-12.5604
670**]	-12.5606
▁exit	-12.5606
▁guidelines	-12.5607
▁[**5-9**]	-12.5608
rule	-12.5609
-190	-12.561
▁66**]	-12.5614
▁7.25	-12.5616
▁nutramigen	-12.5618
691**]	-12.5618
▁retrx	-12.562
tly	-12.562
▁45-	-12.5621
192**]	-12.5622
656**]	-12.5623
-48	-12.5623
groin	-12.5624
▁120-150'	-12.5624
lor	-12.5628
22,	-12.5628
▁nhl	-12.5629
▁[**5-25**]	-12.5631
051**]	-12.5631
339**]	-12.5632
▁fhpa	-12.5633
aaa	-12.5634
arrived	-12.5635
-39	-12.5636
aerated	-12.5639
gly	-12.5641
▁pause	-12.5641
▁hydrothorax	-12.5642
▁pb	-12.5644
068**]	-12.5649
iation	-12.565
tor	-12.565
▁[**12-1**]	-12.5654
▁[**3-28**]	-12.5654
▁9:40	-12.5654
eri	-12.5655
▁helps	-12.5661
conduction	-12.5662
▁pej	-12.5662
▁induction	-12.5665
036**]	-12.5667
▁waxing	-12.5667
▁8.4	-12.5669
0.2	-12.567
350**]	-12.5675
fol	-12.5676
=40	-12.5676
▁granulating	-12.5676
▁lcpc	-12.5676
=21	-12.5678
better	-12.5682
3-6	-12.5683
▁>3	-12.5683
npnnpn	-12.5684
▁benzo	-12.5686
▁agressive	-12.5688
▁cavities	-12.5688
▁(1900-0700)	-12.5688
uac	-12.569
▁8:40	-12.569
387**]	-12.5692
-45%	-12.5692
▁correlated	-12.5695
▁780**]	-12.5696
0700-1900	-12.5696
zy	-12.5696
557**]	-12.5696
▁fasciotomy	-12.57
▁268.4	-12.57
▁stv	-12.57
coli	-12.5701
val	-12.5702
▁"85	-12.5706
840**]	-12.5706
▁bore	-12.5707
▁consulting	-12.5708
▁content	-12.571
▁datacv	-12.5714
▁rhonci	-12.5718
▁3:15	-12.5719
▁685**]	-12.5724
▁pushed	-12.5726
▁enters	-12.5728
advancing	-12.5729
cardiology	-12.5729
▁ileo	-12.5729
▁>93%	-12.573
361**]	-12.5731
▁mil	-12.5731
567**]	-12.5733
▁leftbundle	-12.5735
▁gunshot	-12.5735
▁scabbed	-12.5735
▁bandage	-12.5736
failure	-12.5741
▁withboundaries	-12.5743
543**]	-12.5743
trial	-12.5746
eve	-12.5746
aly	-12.5748
984**]	-12.5749
245**]	-12.575
033**]	-12.5751
134**]	-12.5753
▁(+20)	-12.5755
▁nonlabored	-12.5755
▁47**]	-12.5759
▁hemispheres	-12.576
▁162	-12.576
▁0.05	-12.576
▁heal	-12.5761
acquired	-12.5764
partially	-12.5765
▁intraop	-12.5766
▁electrodes	-12.5767
▁rh	-12.5768
visits	-12.5769
▁jek	-12.577
▁caudate	-12.577
▁8:15	-12.5773
prod	-12.5773
▁statusd	-12.5773
2.2	-12.5773
▁30-35	-12.5774
work	-12.5777
ange	-12.5777
▁82**]	-12.5778
8.0	-12.578
ula	-12.578
effusions	-12.578
▁urgency	-12.5781
close	-12.5782
▁[**6-7**]	-12.5782
▁176	-12.5782
▁pons	-12.5791
▁"73	-12.5793
▁careweb	-12.5793
▁extremties	-12.5793
943**]	-12.5793
▁extracranial	-12.5794
these	-12.5798
▁sensory	-12.5802
▁150-160'	-12.5804
▁hypokalemia	-12.5805
▁midodrine	-12.5805
▁talar	-12.5805
▁interspace	-12.5805
▁copy	-12.5805
▁467**],	-12.5808
▁30-45	-12.5809
▁bathed	-12.581
▁(+40)	-12.5815
▁[**6-/2	-12.5819
401**]	-12.5821
parameters	-12.5823
▁45.4	-12.5827
-56	-12.5828
▁hemodynmicsdata	-12.5829
▁[**12-4**]	-12.5829
▁carvedilol	-12.5832
638**]	-12.5832
98	-12.5834
failed	-12.5835
:33	-12.5837
▁3%	-12.5837
▁2100,	-12.5839
493**]	-12.584
▁336**]	-12.5841
▁[**9-10**]	-12.5841
▁[**4-20**]	-12.5841
979**]	-12.5844
▁1745	-12.5846
feninfant	-12.5847
▁aorticvalve	-12.5848
>96%	-12.585
▁[**11-23**]	-12.5853
-79	-12.5853
▁thr	-12.5854
▁9.6	-12.5854
tight	-12.5854
▁responsiveness	-12.5854
069**]	-12.5856
▁cup	-12.5857
▁hysterectomy	-12.5857
▁blunted	-12.5857
▁reducible	-12.5859
▁>95	-12.5863
dist	-12.587
▁.01	-12.587
▁restrictive	-12.5871
▁compl	-12.5874
▁cardizem	-12.5876
▁nasopharynx	-12.5876
868**]	-12.5876
▁8.3	-12.5876
dka	-12.5883
pot	-12.5884
▁94.	-12.5886
075**]	-12.5887
▁clarify	-12.5888
▁[**5-13**]	-12.5888
▁[**9-30**]	-12.5888
▁nodesats	-12.5889
▁outlet	-12.5893
060**]	-12.5896
▁passe	-12.5897
086**]	-12.5898
▁mct	-12.5898
▁charcot	-12.59
needed	-12.5901
morning	-12.5901
▁cleanser	-12.5901
none	-12.5903
▁rhonchorus	-12.5903
699**]	-12.5904
▁7.24	-12.5905
▁drawing	-12.5906
▁polycose	-12.5911
591**]	-12.5911
050**]	-12.5911
▁psychiatric	-12.5911
chy	-12.5913
▁(5	-12.5915
▁28%	-12.5917
▁pedial	-12.5917
076**]	-12.5918
▁cyanosis	-12.5918
185**]	-12.592
▁accept	-12.592
961**]	-12.5921
2.1	-12.5923
▁sulcal	-12.5923
▁[**6-14**]	-12.5924
▁greatest	-12.5924
▁[**5-3**]	-12.5924
ify	-12.5925
▁"81	-12.5929
▁2:45	-12.5929
▁tlso	-12.593
▁biv	-12.593
▁evalute	-12.5931
▁"80	-12.5932
intermittently	-12.5935
▁[**11-4**]	-12.5936
▁[**5-27**]	-12.5936
▁andround	-12.5939
▁10:12	-12.594
▁(+35)	-12.5941
▁looped	-12.5945
▁70%.	-12.5945
570**]	-12.5951
▁dnge	-12.5953
removed	-12.5954
100.	-12.5955
▁4:15	-12.5955
▁mildsc	-12.5957
▁asystole	-12.5957
▁[**5-5**]	-12.596
▁wallmotion	-12.596
297**]	-12.5961
▁4:45	-12.5962
▁hoarse	-12.5965
▁(+15)	-12.5965
sediment	-12.5967
3%	-12.5968
▁responce	-12.5969
▁genta	-12.5969
mandible	-12.5973
prot	-12.5974
▁motility	-12.5975
▁piece	-12.5978
tus	-12.5979
073**]	-12.599
▁101.9	-12.5991
085**]	-12.5993
▁binder	-12.5995
▁nafcillin	-12.5995
▁correspond	-12.5999
ended	-12.5999
▁sparing	-12.6006
▁alkalemia	-12.6007
▁easier	-12.6007
▁[**5-24**]	-12.6008
ortho	-12.6008
drop	-12.6008
293**]	-12.6011
▁kangarooing	-12.6012
▁attendingexam	-12.6013
▁compressions	-12.6019
▁hypertrophic	-12.6019
876**]	-12.602
▁52.2	-12.6021
loves	-12.6022
▁blockers	-12.6025
▁ivpb	-12.6027
▁gently	-12.603
▁housestaff	-12.6031
▁[**5-17**]	-12.6032
▁[**5-15**]	-12.6032
▁[**9-28**]	-12.6032
▁[**12-16**]	-12.6032
▁>92%	-12.6034
▁pofeeding	-12.6035
▁correlates	-12.6036
▁infnat	-12.6041
▁[**6-18**]	-12.6044
▁mrs	-12.6047
▁biatrial	-12.6049
390**]	-12.605
▁ger	-12.6051
▁paralytics	-12.6052
quiet	-12.6055
▁definition	-12.6055
▁worried	-12.6055
▁11:10	-12.606
184**]	-12.606
-111	-12.606
▁breech	-12.6061
▁[**5-28**]	-12.6062
▁recipe	-12.6065
▁1.25	-12.6066
▁underneath	-12.6067
▁police	-12.6067
diet	-12.6068
▁impending	-12.6068
181**]	-12.6071
144**]	-12.6075
▁sad	-12.6075
997**]	-12.6076
▁postpyloric	-12.6079
hemiarthroplasty	-12.6079
▁uterine	-12.6079
▁[**5-30**]	-12.608
▁intactsocial	-12.6083
497**]	-12.6087
feet	-12.6087
ard	-12.609
▁coarsened	-12.6091
pondylolisthesis	-12.6092
▁inflation	-12.6092
▁[**5-6**]	-12.6092
▁9:50	-12.6093
coags	-12.6094
▁911	-12.6099
▁sharply	-12.6099
▁telephoned	-12.6099
ches	-12.61
696**]	-12.61
▁aquaphor	-12.6103
▁perinatal	-12.6104
▁burping	-12.6108
▁2500	-12.6108
draw	-12.611
▁5:15	-12.611
▁rhythminferior	-12.6115
▁21-26%	-12.6116
▁policy	-12.6116
▁bronchomalacia	-12.6116
▁hypoventilation	-12.6116
▁[**11-20**]	-12.6116
▁pla	-12.6118
ures	-12.612
ane	-12.612
758**]	-12.6122
▁driver	-12.6123
▁#8.0	-12.6125
▁disregard	-12.6127
▁rem	-12.6127
▁[**11-17**]	-12.6129
har	-12.613
lly	-12.6131
234**]	-12.6133
465**]	-12.6133
765**]	-12.6137
-83	-12.6138
-69	-12.6139
▁loculation	-12.614
▁174	-12.6141
▁10:55	-12.6142
der	-12.6142
▁redirected	-12.6143
565**]	-12.6145
▁8.2	-12.6145
▁102.4	-12.6146
▁considerations	-12.6148
crepitus	-12.6149
▁stuffiness	-12.615
▁supportgrowth	-12.6151
▁cerclage	-12.6152
▁isollette	-12.6152
▁cardiophrenic	-12.6152
▁vagal	-12.6153
857**]	-12.6153
▁acidemia	-12.6153
▁topical	-12.6154
471**]	-12.6155
441**]	-12.6156
ision	-12.6157
>60,	-12.6159
172**]	-12.616
660**]	-12.6163
obese	-12.6163
999**]	-12.6164
▁auditory	-12.6164
▁ver	-12.6166
▁scanned	-12.6168
stat	-12.6169
▁careful	-12.617
duoderm	-12.6174
▁doesnt	-12.6176
▁.45	-12.6177
orally	-12.6179
▁conitnue	-12.618
▁growthand	-12.618
766**]	-12.6182
▁cur	-12.6182
▁aphasic	-12.6182
cuff	-12.6185
▁42-	-12.6187
244**]	-12.6187
▁etiologies	-12.6189
▁speed	-12.6192
636**]	-12.6194
▁30-60,	-12.6196
261**]	-12.6197
▁infusions	-12.6197
▁emotionally	-12.62
▁utilized	-12.6201
▁lordosis	-12.6201
786**]	-12.6202
7%	-12.6203
▁1-3	-12.6204
room	-12.6206
▁roots	-12.6207
eration	-12.6207
400**]	-12.6207
976**]	-12.6208
▁rap	-12.6209
▁redirect	-12.6213
▁[**10-1**]	-12.6213
▁benzos	-12.6215
▁"66	-12.6215
133**]	-12.6215
▁firing	-12.6215
maew	-12.6216
▁interacting	-12.6217
▁integ	-12.6217
655**]	-12.6217
▁portuguese	-12.6217
.#11	-12.6219
273**]	-12.6219
▁"63	-12.622
▁.21,	-12.6221
162**]	-12.6223
ser	-12.6225
▁endometrial	-12.6226
▁[**10-12**]	-12.6226
▁brainstem	-12.6226
▁[**5-20**]	-12.6226
573**]	-12.6227
762**]	-12.6227
▁+4	-12.6228
-180'	-12.6229
▁1715	-12.623
ectopy	-12.6232
351**]	-12.6234
▁167	-12.6235
watch	-12.6235
▁mt	-12.6238
▁multidetect	-12.6238
▁styloid	-12.6238
▁yankauer	-12.6238
▁expressive	-12.6238
▁nuclear	-12.6238
300**]	-12.6241
750**]	-12.6241
76	-12.6246
▁contacts	-12.625
▁prescribed	-12.6251
▁[**6-6**]	-12.6251
phy	-12.6251
545**]	-12.6251
38%	-12.6253
▁exhalation	-12.6255
tw	-12.6256
▁100-110'	-12.6256
▁bend	-12.6257
137**]	-12.6259
▁diureses	-12.6261
881**]	-12.6262
▁[**8-4**]	-12.6263
▁10:01	-12.6263
▁10:52	-12.6263
▁surroundings	-12.6264
139**]	-12.6266
▁isordil	-12.6267
▁8:20	-12.6269
lactation	-12.6272
▁condyle	-12.6275
▁9:58	-12.6275
▁kinked	-12.6276
▁tofollow	-12.6276
▁exertional	-12.6276
0.9	-12.6277
▁bwtn	-12.6279
nurse	-12.6279
▁30-35%	-12.6282
649**]	-12.6282
▁creatine	-12.6282
048**]	-12.6284
▁1815	-12.6284
speech	-12.6285
▁posterolateral	-12.6285
lsc	-12.6286
▁arriving	-12.6287
▁sestamibi	-12.6287
▁bronchospasm	-12.6287
▁ciprofloxacin	-12.6287
▁10:04	-12.6288
▁2.0.	-12.6289
937**]	-12.629
▁.1	-12.6291
875**]	-12.6295
▁spellsfen	-12.6295
▁20-24	-12.6299
thoracoabdominal	-12.63
▁[**5-26**]	-12.63
culture	-12.6301
▁94-97%.	-12.6301
397**]	-12.6304
bacter	-12.6313
mia	-12.6313
▁181**]-	-12.6313
▁10:14	-12.6314
▁swaddling	-12.6315
▁odontoid	-12.6319
▁fear	-12.632
▁wellinbetween	-12.6324
▁10:07	-12.6325
▁music	-12.6325
▁12:15	-12.6327
▁tcdb	-12.6328
characterization	-12.6328
▁hrly	-12.6331
corneals	-12.6331
▁referrals	-12.6332
078**]	-12.6333
175**]	-12.6334
969**]	-12.6335
▁strip	-12.6335
877**]	-12.6336
▁migration	-12.6337
▁hepatocellular	-12.6337
▁glenoid	-12.6337
▁signals	-12.6338
▁va	-12.6338
439**]	-12.6339
sleepy	-12.634
subdiaphragmatic	-12.6341
268**]	-12.6344
980**]	-12.6346
▁contributing	-12.6349
▁[**9-20**]	-12.635
repair	-12.635
▁nobradys	-12.6351
▁"51	-12.6351
▁cryo	-12.6354
▁37-	-12.6354
▁sfa	-12.6355
leads	-12.6357
▁massage	-12.6357
▁43-	-12.6359
▁aneurysmal	-12.636
▁[**5-22**]	-12.6362
▁dimished	-12.6363
movement	-12.6365
148**]	-12.6366
852**]	-12.6366
▁10:50	-12.6366
▁afb	-12.6366
▁184**]	-12.6369
▁aresimilar	-12.6369
797**]	-12.6372
998**]	-12.6373
=35	-12.6374
▁managing	-12.6374
-13	-12.6374
ised	-12.6374
adm	-12.6376
▁[**9-26**]	-12.6378
moderately	-12.6378
dia	-12.6379
degrees	-12.638
▁shake	-12.6381
689**]	-12.6384
▁ion	-12.6384
/98	-12.6384
ew	-12.6386
▁excretion	-12.6387
138**]	-12.6387
▁[**5-21**]	-12.6387
▁8.6	-12.6388
▁familymeeting	-12.6391
▁tunnel	-12.6391
873**]	-12.6392
▁mics	-12.6393
335**]	-12.6395
▁bronchi	-12.6396
needing	-12.6396
▁cholesterol	-12.6399
▁[**8-12**]	-12.6399
▁aborted	-12.6399
066**]	-12.6399
▁[**9-12**]	-12.64
▁11:50	-12.64
ther	-12.6401
▁andalert	-12.6406
tis	-12.6408
.5:	-12.6409
-96%	-12.6411
lol	-12.6411
▁temporarily	-12.6412
▁[**11-29**]	-12.6412
▁[**11-16**]	-12.6412
043**]	-12.6415
▁waveinversions	-12.6417
▁181**]	-12.6419
▁nondysmorphic	-12.642
dopamine	-12.6423
▁163	-12.6423
▁8:10	-12.6423
▁trumpet	-12.6424
▁nsvt	-12.6424
▁[**6-12**]	-12.6425
740**]	-12.6425
▁considerably	-12.6425
▁10:16	-12.6426
032**]	-12.6427
ues	-12.6427
736**]	-12.6428
reviewed	-12.6429
▁promodfeedings	-12.6429
▁39-	-12.6432
389**]	-12.6433
549**]	-12.6433
▁lenis	-12.6434
▁tranfer	-12.6434
▁managment	-12.6437
▁dob	-12.6437
▁7:45	-12.6438
scope	-12.6439
▁8:50	-12.6439
▁10:26	-12.644
▁resedated	-12.6441
>65.	-12.6444
uate	-12.6447
▁fibro	-12.6447
▁[**9-29**]	-12.645
▁[**4-24**]	-12.645
▁displayed	-12.645
▁10:17	-12.645
▁9:24	-12.6451
-89	-12.6453
▁fit	-12.6453
964**]	-12.6454
▁126**]	-12.6455
sutures	-12.6455
tric	-12.6458
535**]	-12.6458
sion	-12.6459
564**]	-12.6461
▁stereotactic	-12.6462
▁endovascular	-12.6462
▁[**11-5**]	-12.6462
▁[**6-9**]	-12.6462
planned	-12.6464
246**]	-12.6465
unremarkable	-12.6467
▁9:10	-12.6467
754**]	-12.647
rca	-12.647
▁preprocedure	-12.6471
▁postponed	-12.6474
562**]	-12.6475
▁11:25	-12.6475
kub	-12.6477
571**]	-12.6477
▁nrsg	-12.6478
▁osm	-12.648
581**]	-12.6482
▁temperatures	-12.6483
mobility	-12.6486
desitin	-12.6486
▁remnant	-12.6487
▁tnsf	-12.6487
▁disruption	-12.6487
▁[**6-16**]	-12.6488
944**]	-12.6488
189**]	-12.6492
▁erosions	-12.6497
▁pharynx	-12.6498
8/0.3	-12.6498
▁cognition	-12.6499
▁ouput	-12.65
▁10:06	-12.65
▁conveyed	-12.65
▁200-300	-12.6501
▁fiesty	-12.6501
▁brothers	-12.6502
▁reorients	-12.6502
▁178	-12.6506
▁upstroke	-12.6507
▁1000.	-12.6509
density	-12.651
electrolytes	-12.6511
objective	-12.6511
point	-12.6511
933**]	-12.6512
▁multilobar	-12.6512
▁autopsy	-12.6512
▁9:35	-12.6513
579**]	-12.6513
▁attended	-12.6517
/.40	-12.6518
▁35-40%	-12.6519
▁appreciate	-12.6522
fla	-12.6522
900	-12.6523
den	-12.6523
698**]	-12.6525
▁kayexalate	-12.6525
▁ovary	-12.6525
▁10:48	-12.6526
brain	-12.6526
769**]	-12.6527
▁10.7	-12.653
▁squeezing	-12.653
prop	-12.6534
▁98-99%	-12.6534
▁assessing	-12.6536
pancreatitis	-12.6537
▁computer	-12.6537
▁10:03	-12.6538
▁pleasantly	-12.6538
▁[**5-14**]	-12.6538
▁antbx	-12.6538
stimulation	-12.6539
▁1800,	-12.6539
scan	-12.654
▁313.	-12.654
607**]	-12.6544
151**]	-12.6546
▁[**6-10**]	-12.6547
pregnancy	-12.6549
▁aorto	-12.655
▁hemostasis	-12.655
▁11:05	-12.655
invested	-12.655
▁tummy	-12.6551
where	-12.6551
▁consented	-12.6554
▁22.5	-12.6555
afeb	-12.6557
▁inservo	-12.6558
▁21.5	-12.656
898**]	-12.656
black	-12.6562
formed	-12.6563
▁rets	-12.6563
183**]	-12.6564
577**]	-12.6565
▁119**]	-12.6567
952**]	-12.6567
▁synthroid	-12.6569
ently	-12.657
895**]	-12.6573
▁[**9-22**]	-12.6576
▁10.2	-12.6578
apical	-12.6578
438**]	-12.6579
▁nonobstructive	-12.6579
▁1:15	-12.658
177**]	-12.6584
dstx	-12.6584
▁[**11-12**]	-12.6585
/50-70	-12.6587
4:06	-12.6587
▁30-80	-12.6588
▁vasculitis	-12.6588
▁[**8-28**]	-12.6588
▁10:38	-12.6589
154**]	-12.6591
▁110-150	-12.6593
▁10:11	-12.6593
▁deflection	-12.6596
/400	-12.6597
hed	-12.6597
ole	-12.6599
▁ncat	-12.6599
550	-12.6601
▁nb	-12.6601
▁escalation	-12.6601
▁longitudinal	-12.6601
▁9:53	-12.6601
▁10:21	-12.6601
▁[**12-13**]	-12.6602
▁[**5-7**]	-12.6602
▁9:33	-12.6603
▁5:45	-12.6604
maintained	-12.6606
tracheal	-12.6609
▁107**]-	-12.6609
▁inside	-12.661
▁tonic	-12.661
▁reacts	-12.6612
▁1645	-12.6612
ets	-12.6612
057**]	-12.6613
▁93-95%	-12.6613
facial	-12.6613
▁[**10-20**]	-12.6614
▁somulent	-12.6614
▁polytrauma	-12.6614
495**]	-12.6616
▁104**]	-12.6616
▁defib	-12.6619
▁puffy	-12.6621
▁360	-12.6622
▁apart	-12.6625
▁roux	-12.6627
▁splints	-12.6628
763**]	-12.6629
▁transplantation	-12.6637
707**]	-12.6637
▁breaks	-12.6638
▁ride	-12.6639
▁9:03	-12.6639
uff	-12.6639
▁[**9-21**]	-12.664
▁chance	-12.664
▁183**]	-12.6642
colored	-12.6645
▁consistentwith	-12.6645
▁fibrinogen	-12.6645
690**]	-12.6645
▁nonocclusive	-12.6648
800**]	-12.6648
771**]	-12.6651
445**]	-12.6651
▁clostridium	-12.6652
▁[**10-27**]	-12.6652
▁1/6	-12.6652
▁8:54	-12.6652
▁retractionsabd	-12.6652
▁[**11-15**]	-12.6653
▁[**6-17**]	-12.6653
▁[**11-1**]	-12.6653
▁11:40	-12.6653
633**]	-12.6653
578**]	-12.6655
333**]	-12.6657
▁forfeedings	-12.6657
288**]	-12.6658
▁girthstable	-12.6663
▁prog	-12.6664
body	-12.6665
▁[**10-21**]	-12.6665
▁quiac	-12.6665
▁9:05	-12.6665
▁dilute	-12.6666
row	-12.6666
241**]	-12.6667
▁clotting	-12.6667
▁ruling	-12.6667
▁16-22	-12.6667
▁traveled	-12.6668
▁notechart	-12.6669
115	-12.6669
▁mix	-12.667
▁reversals	-12.667
▁6:00	-12.6672
692**]	-12.6675
95%	-12.6676
centesis	-12.6676
▁10:42	-12.6678
-98%	-12.6678
861**]	-12.6679
▁targeted	-12.668
▁7:15	-12.6682
374**]	-12.6684
802**]	-12.6685
▁10:34	-12.6685
:29	-12.6685
688**]	-12.6687
own	-12.6687
=8	-12.6687
▁tense	-12.6688
▁suc	-12.669
▁diverticulum	-12.6691
▁[**10-15**]	-12.6691
▁timing	-12.6691
▁hemiblock	-12.6691
▁9:57	-12.6691
creatinine	-12.6691
936**]	-12.6693
▁36-	-12.6693
▁7.9	-12.6694
▁32.5	-12.6695
143**]	-12.6697
▁[**6-4**]	-12.6703
▁el	-12.6706
▁93-97%	-12.6706
▁degraded	-12.6707
prbc	-12.6708
932**]	-12.671
▁[**10-25**]	-12.671
▁99.	-12.6711
ely	-12.6712
▁intussusception	-12.6716
vessel	-12.6716
145**]	-12.6716
diastolic	-12.6717
▁[**6-11**]	-12.6717
▁riding	-12.6717
tracheobronchial	-12.6717
glu	-12.6719
▁10:32	-12.6719
▁10:28	-12.672
ator	-12.6721
099**]	-12.6721
>97%	-12.6722
triple	-12.6723
septic	-12.6724
▁adls	-12.6725
548**]	-12.6726
▁50**]	-12.6727
▁relationship	-12.6729
▁desaturating	-12.6729
▁10:59	-12.673
▁8:05	-12.673
▁[**9-23**]	-12.673
▁[**9-8**]	-12.673
▁universal	-12.673
352**]	-12.6731
▁"60	-12.6731
▁notice	-12.6733
277**]	-12.6734
040**]	-12.6737
500**]	-12.674
▁rbbb	-12.674
▁fail	-12.6741
▁1500-2300	-12.6742
▁10:08	-12.6742
▁viewed	-12.6743
▁deny	-12.6743
▁[**9-19**]	-12.6743
▁chronically	-12.6743
▁[**7-/2	-12.6745
izing	-12.6745
077**]	-12.6747
783**]	-12.6747
560**]	-12.6748
▁1100.	-12.6749
-55%	-12.6751
▁bronchospastic	-12.6755
▁9:42	-12.6755
▁9:36	-12.6756
▁[**6-13**]	-12.6756
▁sores	-12.6757
▁90-92%	-12.6757
257**]	-12.6759
40-50	-12.6759
▁compromised	-12.6759
▁pictures	-12.676
obtain	-12.6761
tar	-12.6763
▁surf	-12.6763
153**]	-12.6766
▁95%,	-12.6767
▁arise	-12.6768
▁1600,	-12.6768
pleasant	-12.6769
tes	-12.6769
039**]	-12.6772
▁hn	-12.6773
gave	-12.6774
947**]	-12.6774
▁10:18	-12.6774
476**]	-12.6775
129**]	-12.6777
▁allows	-12.6779
038**]	-12.678
▁urinate	-12.678
▁[**8-29**]	-12.6781
173**]	-12.6782
oke	-12.6786
come	-12.6787
▁tah	-12.6788
968**]	-12.6788
▁1.3.	-12.679
▁bbb	-12.679
mus	-12.6791
▁10.4	-12.6792
▁363.	-12.6793
▁eventual	-12.6793
ans	-12.6794
▁diazepam	-12.6794
▁lit	-12.6794
596**]	-12.6795
▁[**5-29**]	-12.6795
584**]	-12.6797
▁hap	-12.6797
enya	-12.6801
834**]	-12.6802
267**]	-12.6802
anti	-12.6803
▁11:04	-12.6803
794**]	-12.6804
event	-12.6806
▁convincing	-12.6807
▁9:09	-12.6807
kidney	-12.6808
▁9:25	-12.6808
▁alertwith	-12.6809
862**]	-12.6813
555**]	-12.6816
377**]	-12.6818
746**]	-12.6818
547**]	-12.682
▁erratic	-12.682
▁9:51	-12.682
▁9:56	-12.682
▁[**4-26**]	-12.6821
▁???	-12.6821
784**]	-12.6821
▁10:36	-12.6822
▁hepato	-12.6823
963**]	-12.6824
▁hemodyn	-12.6825
▁console	-12.6826
946**]	-12.6826
349**]	-12.6826
872**]	-12.6827
▁[**10-8**]	-12.6833
▁06:00	-12.6833
449**]	-12.6833
▁ofcare	-12.6833
col	-12.6835
itation	-12.6836
598**]	-12.6837
5:04	-12.6838
▁93-96%	-12.6838
▁30-50,	-12.6839
▁thismorning	-12.6839
▁puts	-12.684
646**]	-12.6841
los	-12.6843
▁100-130'	-12.6846
▁cardiothym	-12.6846
▁9:59	-12.6846
▁9:17	-12.6846
rv	-12.6848
com	-12.6849
971**]	-12.6851
▁ever	-12.6851
uses	-12.6852
▁stabilize	-12.6852
101**]	-12.6852
cipro	-12.6853
▁suddenly	-12.6853
559**]	-12.6854
▁hurts	-12.6856
194**]	-12.6856
upon	-12.6858
▁endarterectomy	-12.6859
▁[**10-16**]	-12.6859
▁sarcoidosis	-12.6859
588**]	-12.6864
tubes	-12.6864
chief	-12.6864
544**]	-12.6866
589**]	-12.6867
fused	-12.6868
▁rl	-12.6869
432**]	-12.6869
▁impacted	-12.6871
▁[**8-17**]	-12.6872
▁9:47	-12.6872
▁10:54	-12.6873
▁testicle	-12.6873
▁carefully	-12.6873
▁[**6-8**]	-12.6873
▁10:19	-12.6873
▁[**5-18**]	-12.6873
▁8:55	-12.6873
▁9:18	-12.6874
palpable	-12.6874
▁9:31	-12.6875
▁laying	-12.6875
longer	-12.6875
904**]	-12.6878
▁3:26	-12.6879
487**]	-12.688
706**]	-12.6882
356**]	-12.6882
▁bra	-12.6883
092**]	-12.6885
▁[**10-17**]	-12.6885
▁[**8-18**]	-12.6885
788**]	-12.6885
itic	-12.6886
▁[**6-15**]	-12.6886
807**]	-12.6886
▁prevention	-12.6887
ison	-12.6887
▁309**]	-12.6887
thanks	-12.6888
034**]	-12.6888
382**]	-12.689
▁280	-12.6891
dressed	-12.6891
yrs	-12.6891
044**]	-12.6891
▁10:33	-12.6893
around	-12.6893
992**]	-12.6899
▁10:49	-12.6899
▁9:13	-12.6899
▁[**9-1**]	-12.6899
357**]	-12.69
▁11:02	-12.69
671**]	-12.69
753**]	-12.6902
371**]	-12.6904
▁10:24	-12.6904
▁122**]	-12.6906
292**]	-12.6909
amine	-12.6909
792**]	-12.691
▁2:15	-12.691
▁bulging	-12.6912
▁11:03	-12.6912
=140-160	-12.6912
▁10:22	-12.6913
182**]	-12.6913
operatively	-12.6915
▁groins	-12.6916
▁outcome	-12.6916
▁.03	-12.6917
mnt	-12.6919
▁8.1	-12.6922
▁guide	-12.6923
375**]	-12.6924
▁eschar	-12.6925
narrative	-12.6926
▁9:37	-12.6927
▁transferring	-12.6931
▁10.6	-12.6931
▁194**]	-12.6935
▁20:00	-12.6935
▁blink	-12.6935
▁transit	-12.6935
789**]	-12.6935
segmentelevation	-12.6936
491**]	-12.6938
leafletexcursion	-12.6938
▁choroid	-12.6938
▁10:09	-12.6938
▁latching	-12.6939
▁[**11-3**]	-12.6939
problem	-12.694
▁98%,	-12.694
:37	-12.6941
▁exists	-12.6941
983**]	-12.6942
▁212**]	-12.6942
680**]	-12.6944
bb	-12.6944
863**]	-12.6946
▁8.7	-12.6948
▁palsy	-12.6951
▁11.5	-12.6952
▁[**11-14**]	-12.6952
▁3:05	-12.6953
650**]	-12.6953
▁irritability	-12.6953
978**]	-12.6954
stic	-12.6954
gtt	-12.696
355**]	-12.6961
▁tobacco	-12.6964
▁commenced	-12.6965
-61	-12.6965
▁li	-12.6965
▁chol	-12.6967
▁101,	-12.6969
686**]	-12.6971
▁193**],	-12.6973
▁182**]	-12.6973
▁regulation	-12.6973
299**]	-12.6974
950**]	-12.6977
▁[**10-5**]	-12.6978
-77	-12.6978
▁10:39	-12.6978
742**]	-12.6978
▁holiday	-12.6982
repositioned	-12.6982
retractionsnoted	-12.6983
▁3:50	-12.6985
▁affected	-12.6988
054**]	-12.6991
▁15-25	-12.6992
340**]	-12.6992
▁proceedure	-12.6993
▁3:20	-12.6997
>65	-12.6997
956**]	-12.7003
3:24	-12.7003
▁noninvasive	-12.7004
▁9:48	-12.7004
982**]	-12.7005
▁relayed	-12.7005
777**]	-12.7005
several	-12.7006
264**]	-12.7007
285**]	-12.7008
▁10:29	-12.7011
▁41-	-12.7011
263**]	-12.7012
▁rubella	-12.7014
▁169	-12.7014
393**]	-12.7014
▁"70	-12.7017
▁inopen	-12.7018
266**]	-12.7018
perrl	-12.7019
▁young	-12.702
240**]	-12.7021
080**]	-12.7022
239**]	-12.7031
▁divided	-12.7031
▁skeleton	-12.7031
aspirate	-12.7031
▁guardian	-12.7031
▁10:27	-12.7032
▁definitively	-12.7033
rbbb	-12.7033
▁shocked	-12.7033
▁[**8-20**]	-12.7037
▁147**]	-12.704
975**]	-12.7042
▁[**10-19**]	-12.7044
▁orthopnea	-12.7044
▁bicarbonate	-12.7044
▁[**11-9**]	-12.7045
▁10:23	-12.7045
▁>1	-12.7046
▁100**]	-12.7049
-103	-12.705
247**]	-12.705
▁distressed	-12.7051
▁3:25	-12.7051
163**]	-12.7052
▁consultant	-12.7053
641**]	-12.7054
▁watched	-12.7057
▁[**10-6**]	-12.7057
▁9:55	-12.7058
▁[**11-11**]	-12.7058
▁9:28	-12.7058
▁completing	-12.7067
▁flail	-12.7069
▁zero	-12.7069
169**]	-12.707
▁diastasis	-12.7071
▁reluctant	-12.7071
▁9:38	-12.7071
hat	-12.7071
▁9:19	-12.7071
ain	-12.7071
▁[**7-17**]	-12.7071
▁empirically	-12.7071
levophed	-12.7073
aln	-12.7074
▁+7	-12.7077
▁68**]	-12.7078
▁cspine	-12.7079
2:54	-12.7079
▁11.2	-12.708
780**]	-12.708
ale	-12.708
755**]	-12.7081
ail	-12.7082
▁sets	-12.7083
▁>160	-12.7084
▁warfarin	-12.7084
▁bonding	-12.7084
▁11:09	-12.7084
▁9:14	-12.7085
▁unaware	-12.7085
5/6	-12.7086
369**]	-12.7087
097**]	-12.7088
▁16-24	-12.7088
867**]	-12.7088
▁dmii	-12.7088
294**]	-12.7091
ster	-12.7093
cmo	-12.7094
▁brn	-12.7095
▁554**]	-12.7095
treat	-12.7095
456**]	-12.7097
▁lady	-12.7097
▁inquire	-12.7098
890**]	-12.7098
▁10:13	-12.71
158**]	-12.7102
-117	-12.7102
▁hepb	-12.7103
loud	-12.7104
568**]	-12.7104
▁abnormalityleft	-12.7105
▁believe	-12.7109
▁nitroglycerin	-12.7109
▁wider	-12.7109
▁9:52	-12.7111
▁04:00	-12.7111
.4:	-12.7111
▁sma	-12.7113
▁prefer	-12.7114
274**]	-12.7114
▁moans	-12.7114
900**]	-12.7114
ings	-12.7116
/110	-12.7117
▁isalert	-12.712
▁sct	-12.712
-32%	-12.7121
▁appropriatly	-12.7124
▁9:27	-12.7125
8.5	-12.7125
tation	-12.7126
▁debris	-12.7128
343**]	-12.7128
▁pyelonephritis	-12.7129
loops	-12.713
▁627**]	-12.7132
▁.08	-12.7132
▁regard	-12.7134
nebs	-12.7136
▁386**]	-12.7136
053**]	-12.7138
▁calvarium	-12.7138
▁enterocolitis	-12.7138
▁subtherapeutic	-12.7138
infiltrates	-12.7138
▁consults	-12.7139
▁>90%.	-12.714
▁evac	-12.714
-128	-12.7141
▁gun	-12.7141
790**]	-12.7143
▁acknowledges	-12.7144
041**]	-12.7144
▁worsens	-12.7145
▁21-30%.	-12.7148
▁(7	-12.7148
362**]	-12.715
▁9:22	-12.7152
000**]	-12.7152
aneurysm	-12.7154
▁94-96%.	-12.7155
obtained	-12.7157
908**]	-12.7157
▁4:50	-12.7158
mrs	-12.7159
▁therate	-12.7161
▁11:07	-12.7162
--?	-12.7164
▁2:50	-12.7164
▁cirrhotic	-12.7165
▁papillary	-12.7165
▁[**11-7**]	-12.7165
▁ileal	-12.7166
334**]	-12.7168
▁epiglotti	-12.7171
3/4	-12.7171
▁hemody	-12.7172
▁trialing	-12.7172
enhanced	-12.7173
832**]	-12.7176
▁pndg	-12.7176
▁35-	-12.7176
wet	-12.7178
▁magnum	-12.7178
▁recived	-12.7178
[...]
